{"<|endoftext|>":0,"0":1,"1":2,"2":3,"3":4,"4":5,"5":6,"6":7,"7":8,"8":9,"9":10,"A":11,"B":12,"C":13,"D":14,"E":15,"F":16,"G":17,"c":18,"n":19,"p":20,"q":21,"r":22,"s":23,"t":24,"w":25,"0p":26,"s0p":27,"25":28,"s0p25":29,"ns":30,"cs":31,"4s":32,"2s":33,"5s":34,"cs2s":35,"s0p5":36,"5s0p25":37,"3s":38,"4s0p25":39,"p0":40,"1q":41,"rs0p25":42,"nsG":43,"rs":44,"1p0":45,"nsE":46,"nsC":47,"1q3":48,"6s":49,"cs3s":50,"nsF":51,"4s0p5":52,"nsB":53,"6s0p25":54,"nsD":55,"nsA":56,"5s0p5":57,"3s0p25":58,"rs0p5":59,"75":60,"Gw":61,"cs2sE":62,"s0p75":63,"rs1q":64,"4sE":65,"cs2sC":66,"4sC":67,"4s1p0":68,"1p":69,"Fw":70,"4s1q3":71,"5sE":72,"cs2sB":73,"5s1q3":74,"4sB":75,"4sG":76,"5s1p0":77,"12":78,"nsGw":79,"2p0":80,"cs2sG":81,"3s0p5":82,"cs2sD":83,"cs2sA":84,"rs1p0":85,"5sC":86,"1p5":87,"nsEt":88,"nsFw":89,"nsC5s0p25":90,"cs2sF":91,"4sA":92,"4sD":93,"nsG4s0p25":94,"rs1q6":95,"5sB":96,"nsBt":97,"4sF":98,"rs1q12":99,"nsE5s0p25":100,"5sG":101,"nsCw":102,"nsD5s0p25":103,"nsE4s0p25":104,"5sA":105,"rs0p75":106,"3sC":107,"cs3sE":108,"3s1q3":109,"nsG5s0p25":110,"nsA4s0p25":111,"6s0p5":112,"cs3sC":113,"5sD":114,"5sF":115,"nsB4s0p25":116,"6sE":117,"7s":118,"nsD4s0p25":119,"nsF5s0p25":120,"nsC4s0p25":121,"nsF4s0p25":122,"4sGw":123,"3s1p0":124,"cs2sGw":125,"nsA5s0p25":126,"3sE":127,"cs3sB":128,"3sB":129,"6sC":130,"cs3sG":131,"4s0p75":132,"7s0p25":133,"3sG":134,"5s0p75":135,"3sD":136,"cs2sEt":137,"nsC6s0p25":138,"6s1q3":139,"cs2sBt":140,"cs3sA":141,"4sEt":142,"q3":143,"cs3sF":144,"rs2p0":145,"3p0":146,"cs2sFw":147,"nsG4s0p5":148,"6sB":149,"nsB5s0p25":150,"4sBt":151,"5sGw":152,"4sCw":153,"4s1p5":154,"nsG3s0p25":155,"6sA":156,"4s2p0":157,"nsB3s0p25":158,"4sFw":159,"cs2sCw":160,"rs2":161,"6s1p0":162,"cs3sD":163,"5sFw":164,"nsC5s0p5":165,"nsE6s0p25":166,"rs1q3":167,"3sF":168,"6sD":169,"1p25":170,"rs1p5":171,"6sG":172,"nsA4s0p5":173,"5sE5s0p25":174,"5sEt":175,"nsE4s0p5":176,"2s0p25":177,"nsEt5s0p25":178,"3sA":179,"nsD6s0p25":180,"nsE5s0p5":181,"6sF":182,"5sBt":183,"4sG4s0p25":184,"4sC5s0p25":185,"nsGw4s0p25":186,"5s1p5":187,"5s2p0":188,"5sG5s0p25":189,"nsC4s0p5":190,"nsD5s0p5":191,"nsA3s0p25":192,"q12":193,"1p75":194,"5sCw":195,"4sE4s0p25":196,"rs5":197,"nsD4s0p5":198,"nsB4s0p5":199,"nsGw5s0p25":200,"cs3sGw":201,"nsFw4s0p25":202,"nsG6s0p25":203,"nsF4s0p5":204,"cs4sE":205,"cs2sE5sE":206,"nsBt4s0p25":207,"p5":208,"4sF4s0p25":209,"nsFw5s0p25":210,"nsCw5s0p25":211,"4sA4s0p25":212,"nsEt4s0p25":213,"rs5q12":214,"nsE3s0p25":215,"5sA5s0p25":216,"4sB4s0p25":217,"5sF5s0p25":218,"cs3sEt":219,"nsG3s0p5":220,"nsF6s0p25":221,"cs3sFw":222,"rs2q3":223,"5sD5s0p25":224,"3sGw":225,"cs4sG":226,"4sD5s0p25":227,"5sC5s0p25":228,"6sGw":229,"nsC5s1q3":230,"cs4sC":231,"5sC6s0p25":232,"rs1p25":233,"nsG5s0p5":234,"nsF3s0p25":235,"nsD5s1q3":236,"nsG4s1p0":237,"cs3sBt":238,"cs4sA":239,"6sFw":240,"cs4sD":241,"nsB4s1q3":242,"nsA5s0p5":243,"nsF5s0p5":244,"6sEt":245,"4s3p0":246,"cs2sE4sE":247,"5sB4s0p25":248,"3sBt":249,"nsC4s1p0":250,"nsE5s1q3":251,"cs3sCw":252,"3sC4s0p25":253,"nsA4s1q3":254,"3sEt":255,"nsBt5s0p25":256,"nsB3s0p5":257,"nsG4s1q3":258,"3s0p75":259,"nsE4s1p0":260,"nsC4s1q3":261,"rs1p75":262,"nsCw4s0p25":263,"cs4sB":264,"nsGw3s0p25":265,"4sD4s0p25":266,"4sC5s0p5":267,"5sB5s0p25":268,"cs2sG4sG":269,"3s2p0":270,"1q12":271,"nsA6s0p25":272,"nsGw4s0p5":273,"6sCw":274,"7sE":275,"nsC5s1p0":276,"2q3":277,"rs3p0":278,"nsD4s1q3":279,"6sE6s0p25":280,"3sCw":281,"nsA4s1p0":282,"nsE5s1p0":283,"6sBt":284,"4sE4s0p5":285,"nsBt3s0p25":286,"4sGw4s0p25":287,"3sD4s0p5":288,"4p0":289,"nsG3s1q3":290,"4sG4s0p5":291,"3sFw":292,"nsF4s1q3":293,"cs4sF":294,"nsE4s1q3":295,"5sA4s0p25":296,"4sC4s0p25":297,"nsCw6s0p25":298,"3sC4s0p5":299,"nsF4s1p0":300,"nsBt4s0p5":301,"p75":302,"nsEt6s0p25":303,"nsD3s0p25":304,"cs2sE6sE":305,"6s0p75":306,"3s1p5":307,"cs2sE5sE4s0p25":308,"7sC":309,"nsFw4s0p5":310,"nsB5s0p5":311,"nsA3s0p5":312,"4sD5s0p5":313,"cs2sC5sE":314,"2p5":315,"3sD4s0p25":316,"4sA4s0p5":317,"4sC5s1p0":318,"5sFw5s0p25":319,"4sE5s0p25":320,"6s2p0":321,"6sD6s0p25":322,"nsG5s1q3":323,"nsC6s0p5":324,"nsB3s1q3":325,"2s1q3":326,"cs2sA4sA":327,"cs3sC4sE":328,"cs2sG5sG":329,"nsC3s0p25":330,"nsFw3s0p25":331,"4sBt4s0p25":332,"nsEt4s0p5":333,"nsC7s0p25":334,"nsB6s0p25":335,"4sF4s0p5":336,"5sD6s0p25":337,"nsCw5s0p5":338,"nsD4s1p0":339,"cs2sF5sF":340,"3sG3s0p25":341,"4sG4s1p0":342,"2s0p5":343,"2s1p0":344,"4sB3s0p25":345,"4sFw4s0p25":346,"6sF6s0p25":347,"cs2sC6sC":348,"nsF5s1q3":349,"nsB4s1p0":350,"2sD":351,"nsG5s1p0":352,"nsD5s1p0":353,"nsA3s1q3":354,"7sB":355,"rs1":356,"5sGw5s0p25":357,"rs2p5":358,"5s3p0":359,"p25":360,"4sCw5s0p25":361,"5sEt5s0p25":362,"cs2sF4sF":363,"cs2sC5sC":364,"4sC5sE":365,"cs4sGw":366,"1q6":367,"nsB3s1p0":368,"4sE4s1p0":369,"6sC6s0p25":370,"nsEt5s0p5":371,"cs2sG3sG":372,"6sB5s0p25":373,"cs4sEt":374,"nsE3s0p5":375,"3sB3s0p25":376,"nsD6s0p5":377,"cs2sB4sB":378,"4sB4s0p5":379,"4sD5s1p0":380,"6sA5s0p25":381,"7sA":382,"6sG6s0p25":383,"4sA4s1p0":384,"7s0p5":385,"4sEt4s0p25":386,"cs4sBt":387,"nsF5s1p0":388,"4q3":389,"6sA6s0p25":390,"nsGw6s0p25":391,"3sC4s1p0":392,"6s1p5":393,"nsFw6s0p25":394,"3sE4s0p25":395,"4s1p25":396,"cs2sA5sA":397,"nsCw4s0p5":398,"nsA5s1q3":399,"nsFw5s0p5":400,"cs3sG3sC":401,"3sA3s0p25":402,"nsF3s1q3":403,"nsGw5s0p5":404,"cs2sC4sE4s0p25":405,"5sG5s0p5":406,"nsG3s1p0":407,"nsGw4s1q3":408,"cs3sE4sC":409,"cs2sB3sB":410,"nsE6s0p5":411,"nsA5s1p0":412,"rs4p0":413,"cs4sCw":414,"cs4sFw":415,"cs2sD5sD":416,"cs2sD6sD":417,"nsFw4s1q3":418,"rs2p75":419,"cs2sE6sE5s0p25":420,"4s2q3":421,"nsC6s1q3":422,"cs2sE4sC":423,"nsB2s0p25":424,"nsEt3s0p25":425,"nsE7s0p25":426,"7sF":427,"nsF3s0p5":428,"cs2sC5sE5s0p25":429,"5s1p25":430,"2sC":431,"nsE3s1q3":432,"cs3sE4sG":433,"4sCw4s0p25":434,"cs3sC5sE":435,"nsC3s1q3":436,"6sG5s0p25":437,"5sE6s0p25":438,"3sF4s0p5":439,"nsB5s1q3":440,"cs3sA4sC":441,"5sBt4s0p25":442,"5sA5s0p5":443,"nsGw4s1p0":444,"nsFw5s1q3":445,"5sB4s0p5":446,"5sG4s0p25":447,"cs2sF5sG5s0p25":448,"nsBt4s1q3":449,"6sC7s0p25":450,"rs11q12":451,"nsG4s0p75":452,"cs2sGw4sGw":453,"5s1p75":454,"5sGw4s0p25":455,"cs2sE4sE5s0p25":456,"3sD4s1p0":457,"2sE":458,"nsBt3s0p5":459,"3sE3s0p25":460,"5sBt5s0p25":461,"cs2sC4sE4s0p5":462,"6sB6s0p25":463,"3sE4s0p5":464,"cs2sD5sE5s0p25":465,"4sEt5s0p25":466,"q6":467,"3sG3s0p5":468,"1s":469,"cs2sA3sA":470,"cs2sA5sB5s0p25":471,"nsC4s0p75":472,"4sA3s0p25":473,"3s3p0":474,"4sF4s1p0":475,"cs3sD4sF":476,"4s1p75":477,"4sE4s1q3":478,"cs2sD5sF":479,"7s1q3":480,"4sF5s0p25":481,"5s2q3":482,"cs2sE4sG4s0p25":483,"4sD4s0p5":484,"rs7":485,"nsD3s1q3":486,"nsA3s1p0":487,"nsE5s0p75":488,"5sC6s0p5":489,"nsCw5s1q3":490,"cs3sG4sE":491,"cs2sB4sD5s0p25":492,"nsG4s1p5":493,"nsD7s0p25":494,"cs2sF6sF":495,"cs2sA4sB4s0p25":496,"nsEt5s1q3":497,"nsBt3s1q3":498,"nsC5s0p75":499,"nsBt6s0p25":500,"rs3":501,"3sB3s0p5":502,"3sF4s0p25":503,"6sEt6s0p25":504,"2sG":505,"4sB4s1p0":506,"5sC5s0p5":507,"4sGw4s0p5":508,"7sD":509,"cs2sEt5sEt":510,"nsC6s1p0":511,"5sCw5s0p25":512,"nsFw4s1p0":513,"cs3sC4sF":514,"rs2p25":515,"2sB":516,"nsFw3s0p5":517,"4sE5s0p5":518,"5sG5s1q3":519,"4sC4s0p5":520,"nsGw3s0p5":521,"nsEt4s1p0":522,"cs2sB3sD4s0p5":523,"nsGw5s1q3":524,"cs3sF4sA":525,"nsG5s0p75":526,"nsD5s0p75":527,"7s1p0":528,"nsE4s0p75":529,"cs2sD5sF5s0p25":530,"cs2sE5sC5s0p25":531,"cs3sA3sC":532,"6sFw6s0p25":533,"nsA4s0p75":534,"cs2sE4sG4s0p5":535,"4sC5s1q3":536,"cs2sA4sC5s0p25":537,"5sB5s0p5":538,"4s2p5":539,"nsGw3s1q3":540,"cs2sD4sF4s0p25":541,"nsBt4s1p0":542,"nsEt4s1q3":543,"5sA4s0p5":544,"5sA5s1p0":545,"5s2p5":546,"nsG4s2p0":547,"nsEt5s1p0":548,"nsBt5s0p5":549,"cs2sE5sG5s0p25":550,"cs2sG4sF4s0p25":551,"cs2sD5sC5s0p25":552,"5sD5s1q3":553,"5sCw6s0p25":554,"cs2sC4sE":555,"cs2sC6sE":556,"4sA3s0p5":557,"7sG":558,"5sE5s1q3":559,"7sGw":560,"cs3sB3sD":561,"3sG3s1p0":562,"4sG4s1q3":563,"cs2sB4sC5s0p25":564,"nsCw4s1q3":565,"cs2sFw5sFw":566,"nsC3s0p5":567,"cs2sC5sA4s0p25":568,"cs2sF5sE5s0p25":569,"3sGw3s0p25":570,"cs2sG4sG5s0p25":571,"5sC6s1p0":572,"7sEt":573,"3sCw4s0p25":574,"cs2sF4sG4s0p25":575,"cs2sC4sC5s0p25":576,"cs3sC4sA":577,"nsC5s1p5":578,"6sBt5s0p25":579,"5sE5s1p0":580,"cs3sG4sB":581,"6sGw6s0p25":582,"nsF6s0p5":583,"cs2sE5sD5s0p25":584,"cs2sF4sA4s0p25":585,"5sG5s1p0":586,"7sCw":587,"nsCw6s0p5":588,"cs2sBt3sBt":589,"3sF3s0p25":590,"nsA2s0p25":591,"cs2sC5sD5s0p25":592,"cs3sE5sG":593,"cs2sD4sE4s0p25":594,"cs3sF4sD":595,"cs2sC4sC":596,"cs2sA5sG5s0p25":597,"5sC6sE":598,"nsCw5s1p0":599,"cs3sF4sGw":600,"cs2sG4sG3s0p5":601,"nsA4s1p5":602,"2sA":603,"cs2sC5sB4s0p25":604,"5sE5s0p5":605,"7sFw":606,"6sD6s1q3":607,"3sA3s0p5":608,"cs2sE5sE6s0p25":609,"4s1q12":610,"nsE4s2p0":611,"4sB4s1q3":612,"cs2sD4sD5s0p25":613,"5sC5s1p0":614,"4sG5s0p25":615,"4sG3s0p25":616,"cs3sC5sA":617,"nsD3s0p5":618,"nsD6s1q3":619,"nsB4s0p75":620,"cs2sE4sC4s0p25":621,"cs2sF5sF4s0p25":622,"cs2sB3sD4s0p25":623,"nsC4s2p0":624,"cs2sA4sG4s0p25":625,"nsCw3s0p25":626,"cs3sE4sA":627,"2sF":628,"nsE6s1q3":629,"cs2sB5sB":630,"nsG6s0p5":631,"cs2sD4sB":632,"4sA4s1q3":633,"nsB5s1p0":634,"cs2sC4sE4s1p0":635,"3sE4s1p0":636,"cs2sD4sF4s0p5":637,"cs3sE3sG":638,"cs2sEt4sG4s0p25":639,"cs3sA4sE":640,"cs3sG4sC":641,"4sE5s1p0":642,"cs2sB4sD":643,"5sC5s1q3":644,"cs2sC6sC5s0p25":645,"5sF5s1q3":646,"3sEt4s0p25":647,"8s":648,"nsG2s0p25":649,"nsA5s0p75":650,"cs2sC5sC6s0p25":651,"cs3sG3sE":652,"cs2sB5sC6s0p25":653,"nsG5s2p0":654,"cs2sE6sD6s0p25":655,"4sFw5s0p25":656,"6sCw6s0p25":657,"cs2sD6sD5s0p25":658,"cs2sB4sA4s0p25":659,"5sF5s0p5":660,"cs2sGw5sGw":661,"3sBt3s0p5":662,"nsE3s1p0":663,"nsE6s1p0":664,"nsF4s2p0":665,"cs2sA4sC5s0p5":666,"6sGw5s0p25":667,"nsE5s2p0":668,"nsA4s2p0":669,"cs2sE4sCw4s0p25":670,"cs2sB4sD5s0p5":671,"cs3sC4sG":672,"cs3sC5sG":673,"cs3sB4sD":674,"cs2sBt4sBt":675,"4sEt4s0p5":676,"cs2sG5sG4s0p25":677,"5s1q12":678,"5sD5s0p5":679,"4sCw5s0p5":680,"cs3sD4sB":681,"6sA5s0p5":682,"nsC4s1p5":683,"nsF4s1p5":684,"cs2sE5sF5s0p25":685,"cs2sC4sC5s0p5":686,"cs2sB5sB4s0p25":687,"5sB4s1q3":688,"cs3sE5sE":689,"cs3sE3sC":690,"3sF3s0p5":691,"cs2sC5sE5s0p5":692,"nsGw5s1p0":693,"cs3sGw4sB":694,"2sD3s0p25":695,"nsE4s1p5":696,"nsD6s1p0":697,"cs2sG4sE4s0p25":698,"cs2sG5sF5s0p25":699,"cs3sE5sC":700,"4sGw4s1p0":701,"cs3sF4sB":702,"4sFw4s0p5":703,"rs5q3":704,"cs2sB5sA5s0p25":705,"cs2sG4sB4s0p25":706,"nsF3s1p0":707,"5sA5s1q3":708,"cs2sGw3sGw":709,"cs3sA4sF":710,"2p25":711,"nsC5s2p0":712,"cs2sE4sG":713,"cs2sB3sG":714,"3sFw3s0p25":715,"cs2sF4sF5s0p25":716,"cs2sB4sB5s0p25":717,"cs2sB3sB4s0p25":718,"6s3p0":719,"4sBt4s0p5":720,"cs3sD5sF":721,"3sGw3s0p5":722,"cs2sD4sF":723,"4s4p0":724,"5s1q6":725,"nsA6s0p5":726,"cs2sE4sD4s0p25":727,"cs2sD5sB4s0p25":728,"cs2sF5sD5s0p25":729,"3sB3s1p0":730,"3sCw4s0p5":731,"nsE5s1p5":732,"cs2sA4sA5s0p5":733,"nsD4s0p75":734,"4sGw4s1q3":735,"cs3sG5sE":736,"cs2sBt5sBt":737,"cs2sE4sF4s0p25":738,"5sB5s1p0":739,"cs3sF4sC":740,"cs2sC6sD6s0p25":741,"cs2sD4sD":742,"5sF6s0p25":743,"cs3sB3sF":744,"4sCw5s1q3":745,"5s4q3":746,"cs2sB3sC4s0p25":747,"cs3sG3sB":748,"cs2sA4sA5s0p25":749,"nsF2s0p25":750,"4sC4s1q3":751,"4sG4sB":752,"5sD6s0p5":753,"cs2sEt6sEt":754,"cs3sF3sB":755,"6sFw5s0p25":756,"nsF5s0p75":757,"cs2sE4sC5s0p25":758,"3sBt3s0p25":759,"4sC4s1p0":760,"cs2sA5sA4s0p25":761,"5sF5s1p0":762,"cs2sG4sG5s0p5":763,"4sC5sE5s1p0":764,"2p75":765,"4sC5s0p75":766,"4sD4s1p0":767,"5sEt6s0p25":768,"cs2sG5sE5s0p25":769,"cs2sF4sD4s0p25":770,"5sB5s1q3":771,"cs2sE4sE5s0p5":772,"7sBt":773,"cs2sG3sG4s0p25":774,"nsD4s1p5":775,"cs2sD4sD5s0p5":776,"cs2sF4sE4s0p25":777,"cs3sE4sE":778,"cs3sE4sGw":779,"6sE6s1q3":780,"cs2sCw5sCw":781,"cs2sE6sD6s1q3":782,"cs2sF4sA4s0p5":783,"cs2sEt4sEt":784,"nsEt3s1q3":785,"cs2sF5sA5s0p25":786,"cs2sG5sG4s0p5":787,"4s1q6":788,"nsG4s3p0":789,"6s1p25":790,"nsB4s1p5":791,"nsC3s1p0":792,"cs2sG4sA4s0p25":793,"cs2sG3sC4s0p25":794,"nsCw4s1p0":795,"cs3sC4sEt":796,"4sBt4s1p0":797,"5sGw5s0p5":798,"rs7q12":799,"2s2p0":800,"nsF4s0p75":801,"cs2sG3sD4s0p5":802,"3sC3s0p25":803,"cs2sF6sF5s0p25":804,"cs2sC5sEt5s0p25":805,"cs2sB4sD5s1p0":806,"nsFw3s1q3":807,"5sC6s1q3":808,"4sF5s0p5":809,"5sG4s0p5":810,"nsCw6s1q3":811,"cs2sE4sC5s0p5":812,"4sG3s0p5":813,"cs3sA5sC":814,"cs2sC4sC5s1p0":815,"nsGw6s0p5":816,"cs3sG4sG":817,"cs4sE4sG":818,"cs2sD5sD6s0p25":819,"cs2sA5sF5s0p25":820,"cs3sC4sC":821,"cs3sG4sD":822,"7sE7s0p25":823,"3s1p25":824,"cs2sC7sC":825,"nsFw5s1p0":826,"nsCw7s0p25":827,"cs3sC6sE":828,"cs3sD5sB":829,"6sG5s0p5":830,"cs2sE5sE4s0p5":831,"4sE4sG":832,"cs2sD6sC6s0p25":833,"6sE5s0p25":834,"cs3sB4sGw":835,"3sA3s1p0":836,"5s4p0":837,"cs2sC4sD4s0p25":838,"cs2sG4sBt4s0p25":839,"cs3sE4sB":840,"cs3sC5sC":841,"cs3sB4sE":842,"rs3p5":843,"nsFw6s0p5":844,"cs2sGw4sB4s0p25":845,"cs2sCw6sCw":846,"6sF5s0p25":847,"cs4sE5sG":848,"nsE2s0p25":849,"nsB2s1q3":850,"nsBt5s1q3":851,"nsBt3s1p0":852,"cs3sE5sB":853,"3sE3s0p5":854,"4s4q3":855,"cs2sD6sE6s0p25":856,"nsG6s1q3":857,"cs2sE5sA5s0p25":858,"cs2sD4sC4s0p25":859,"cs2sC5sE5s1p0":860,"cs3sE4sC5sE5s0p25":861,"rs4q3":862,"cs2sD4sB3s0p25":863,"cs3sE6sGw":864,"cs3sC5sD":865,"5sGw5s1p0":866,"4sCw5s1p0":867,"cs3sGw4sC":868,"6sBt6s0p25":869,"cs2sF4sF5s0p5":870,"nsC4s3p0":871,"nsB6s0p5":872,"5sD6s1p0":873,"7sB6s0p25":874,"cs2sE3sC4s0p5":875,"5sE6s0p5":876,"4sG4s0p75":877,"cs2sA5sC6s0p25":878,"5sA4s1p0":879,"5sFw4s0p25":880,"cs2sE4sE5s1q3":881,"nsF5s2p0":882,"cs2sA3sC4s0p25":883,"nsBt4s0p75":884,"5sG4s1p0":885,"cs3sF5sD":886,"6sB5s1q3":887,"5sFw5s1p0":888,"cs2sE4sE5s1p0":889,"7s0p75":890,"cs2sE6sF6s0p25":891,"cs2sC4sEt4s0p25":892,"4sB3s0p5":893,"4sD5sF":894,"5sB4s1p0":895,"cs3sG5sB":896,"cs3sD4sG":897,"cs2sGw4sGw5s0p25":898,"cs2sA3sA4s0p25":899,"cs2sB4sG4s0p25":900,"nsGw3s1p0":901,"3sD3s0p25":902,"6sA5s1p0":903,"3sF4s1p0":904,"3sEt4s0p5":905,"cs2sC6sC5s0p5":906,"rs3p75":907,"cs8s":908,"nsC6s0p75":909,"cs2sB6sC7s0p25":910,"cs2sF6sE6s0p25":911,"cs2sF4sGw4s0p25":912,"4sA4s0p75":913,"cs3sE6sE":914,"cs3sF3sC":915,"cs4sG4sBt":916,"cs2sE4sC4s1p0":917,"cs2sG5sA5s0p25":918,"cs2sA3sB3s0p25":919,"4sF4s1q3":920,"cs3sB4sG":921,"cs3sB4sF":922,"cs3sG4sBt":923,"5sFw5s0p5":924,"cs2sB5sG5s0p25":925,"cs3sC5sF":926,"cs3sC6sA":927,"cs3sB3sE":928,"2s0p75":929,"3s2q3":930,"nsB3s2p0":931,"nsD5s1p5":932,"cs2sG6sG5s0p25":933,"3sC4s1q3":934,"cs3sE5sA":935,"cs2sEt4sEt5s0p25":936,"cs4sC5sE":937,"nsA5s2p0":938,"cs2sB4sG":939,"cs2sB4sE5s0p25":940,"cs2sA3sC4s0p5":941,"cs2sA6sG6s0p25":942,"5sG6s0p25":943,"4sGw3s0p25":944,"6sC6s1q3":945,"6sB5s0p5":946,"5sGw5s1q3":947,"cs4sE4sE":948,"7sA6s0p25":949,"nsG5s1p5":950,"nsG3s1p5":951,"nsC5s3p0":952,"6s1q12":953,"nsF6s1q3":954,"nsA2s1p0":955,"4sA4s1p5":956,"4sF5s1p0":957,"cs3sE5sGw":958,"cs3sB3sG":959,"cs2sFw3sFw":960,"4sBt3s0p25":961,"cs2sD5sF5s0p5":962,"6s1q6":963,"nsB5s0p75":964,"nsA2s1q3":965,"cs2sC5sEt":966,"cs2sC4sF4s0p25":967,"nsFw3s1p0":968,"4sD4s1q3":969,"4sFw4s1q3":970,"3sF3s1p0":971,"cs2sC5sC6s0p5":972,"cs2sB3sB4s0p5":973,"cs2sE4sC4s0p5":974,"3s1p75":975,"nsF7s0p25":976,"nsB4s2p0":977,"cs2sE3sG3s0p5":978,"cs2sB5sD6s0p25":979,"3sC4s0p75":980,"6sC6s0p5":981,"3sG4s0p25":982,"cs2sFw4sFw":983,"6sD7s0p25":984,"7sE6s0p25":985,"3p5":986,"3sB2s0p25":987,"4sEt4s1p0":988,"5sCw5s1q3":989,"cs3sCw5sE":990,"cs2sF5sF6s0p25":991,"cs2sC5sC4s0p25":992,"cs3sG3sC4sE4s0p5":993,"nsE4s3p0":994,"nsF6s1p0":995,"nsB3s0p75":996,"cs2sC3sE3s0p25":997,"cs2sB3sD":998,"nsEt6s0p5":999,"cs2sGw4sC5s0p25":1000,"cs3sA4sB":1001,"cs3sGw3sB":1002,"cs3sEt4sG":1003,"cs2sG3sG4s0p5":1004,"nsC7s0p5":1005,"cs2sC3sC4s0p25":1006,"cs2sC6sA5s0p25":1007,"cs3sE6sC":1008,"3sE3s1p0":1009,"cs3sG5sG":1010,"3sG4s0p5":1011,"cs2sFw4sA4s0p25":1012,"5sFw5s1q3":1013,"cs4sE4sA":1014,"7sC7s0p25":1015,"cs2sB4sB5s0p5":1016,"cs2sA5sA4s0p5":1017,"3s2p5":1018,"cs2sE3sC4s1p0":1019,"cs2sC4sA3s0p25":1020,"5sE5sC5s0p25":1021,"nsGw4s2p0":1022,"nsGw2s0p25":1023,"cs3sD5sG":1024,"5sCw6s0p5":1025,"cs2sE6sE7s0p25":1026,"1s0p5":1027,"cs2sE4sA4s0p25":1028,"cs2sE4sG4s1p0":1029,"cs2sA4sF4s0p25":1030,"cs2sA6sA5s0p25":1031,"4sD5s0p75":1032,"5sD5s1p0":1033,"cs2sEt4sC4s0p25":1034,"6sD6s0p5":1035,"7sD7s0p25":1036,"cs2sBt3sBt4s0p5":1037,"7q12":1038,"nsG2s1q3":1039,"cs2sC6sB5s0p25":1040,"4sG4s2p0":1041,"nsEt5s0p75":1042,"cs3sC6sC":1043,"cs2sGw3sB3s0p25":1044,"cs2sBt4sCw5s0p25":1045,"4sCw4s1q3":1046,"6sA5s1q3":1047,"cs4sE5sC":1048,"cs4sD4sF":1049,"nsG3s2p0":1050,"4sG3s1p0":1051,"cs2sD6sB5s0p25":1052,"cs2sA3sF4s0p5":1053,"nsFw4s1p5":1054,"cs2sF4sD4s0p5":1055,"5sG5s0p75":1056,"6sE6s0p5":1057,"cs2sGw4sB4s0p5":1058,"cs3sB2sD":1059,"cs3sD5sD":1060,"cs2sD6sD5s0p5":1061,"nsF4s3p0":1062,"nsD3s1p0":1063,"cs2sE5sFw5s0p25":1064,"nsGw4s0p75":1065,"cs2sG4sC5s0p25":1066,"cs2sA2sA":1067,"3sC4s1p5":1068,"4sGw5s0p25":1069,"3sB3sD":1070,"cs3sA4sA":1071,"cs3sA5sF":1072,"cs3sF5sA":1073,"6sB5s1p0":1074,"cs3sD5sC":1075,"cs3sD4sA":1076,"cs2sE5sE4s1q3":1077,"cs2sE3sE":1078,"4sE5s1q3":1079,"cs2sA4sE5s0p25":1080,"nsEt4s0p75":1081,"3sC3s0p5":1082,"cs3sC3sE":1083,"cs3sB4sA":1084,"cs3sG4sC5sE":1085,"cs3sF4sF":1086,"cs2sFw5sG5s0p25":1087,"cs3sD4sGw":1088,"cs3sGw4sE":1089,"cs2sB4sB3s0p5":1090,"6s1p75":1091,"nsF5s1p5":1092,"cs2sE3sG3s0p25":1093,"cs2sC4sA4s0p25":1094,"cs2sC6sE6s0p25":1095,"5sE5sC":1096,"cs2sB5sB4s0p5":1097,"cs2sF4sA4s1p0":1098,"cs3sF4sBt":1099,"4sFw4s1p0":1100,"6sG5s1q3":1101,"rs13":1102,"cs2sD5sD4s0p25":1103,"7sF7s0p25":1104,"rs7q6":1105,"cs6sE":1106,"2s1p5":1107,"nsG3s0p75":1108,"nsD5s2p0":1109,"nsA5s1p5":1110,"cs2sC4sA4s0p5":1111,"nsGw4s1p5":1112,"cs2sD5sB4s0p5":1113,"nsFw4s2p0":1114,"cs3sF4sG":1115,"6sA6s0p5":1116,"cs2sCw5sE5s0p25":1117,"cs3sGw3sC":1118,"cs4sE5sA":1119,"cs4sC4sG":1120,"cs3sCw4sE":1121,"cs3sCw4sF":1122,"nsD4s2p0":1123,"cs2sE5sG5s0p5":1124,"4sC5sEt":1125,"cs2sD4sD5s1p0":1126,"cs2sA4sE4s0p25":1127,"cs2sF3sD4s0p5":1128,"nsBt2s0p25":1129,"cs3sB3sGw":1130,"cs3sD4sE":1131,"cs3sGw5sE":1132,"cs2sE4sE5s0p75":1133,"cs4sB4sD":1134,"cs2sE6sE5s0p5":1135,"cs2sA5sA6s0p25":1136,"cs2sD5sD4s0p5":1137,"cs2sA3sA4s0p5":1138,"cs5sC":1139,"cs2sE3sC4s0p25":1140,"cs2sE6sC6s0p25":1141,"cs2sC4sF":1142,"4sC5s1p5":1143,"cs2sB4sB3s0p25":1144,"4sB3s1p0":1145,"nsBt5s1p0":1146,"cs2sGw4sA4s0p25":1147,"cs3sB5sG":1148,"cs3sA3sE":1149,"cs2sF5sF4s0p5":1150,"cs2sD5sD6s0p5":1151,"cs2sB4sGw4s0p25":1152,"nsBt4s1p5":1153,"3sC4s2p0":1154,"cs3sB4sB":1155,"cs3sG4sF":1156,"4sEt5s0p5":1157,"cs3sF5sG":1158,"6sA6s1p0":1159,"cs2sE5sE6s1p0":1160,"cs2sB3sF4s0p5":1161,"cs2sG4sB4s0p5":1162,"cs2sF6sD6s0p25":1163,"4sA3s1p0":1164,"cs2sFw4sG4s0p25":1165,"cs2sFw4sA4s0p5":1166,"cs2sCw4sE4s0p25":1167,"cs3sGw5sB":1168,"cs3sGw4sF":1169,"cs3sEt4sGw":1170,"6sCw7s0p25":1171,"4s2p75":1172,"nsA3s0p75":1173,"cs2sC5sA4s0p5":1174,"nsCw6s1p0":1175,"cs3sC4sFw":1176,"cs2sGw4sF4s0p25":1177,"cs2sBt4sC5s0p25":1178,"cs3sF5sB":1179,"cs3sGw4sD":1180,"cs2sB4sD5s1q3":1181,"nsC3s0p75":1182,"4sB4s0p75":1183,"cs2sG3sC4s0p5":1184,"cs2sG3sE4s0p5":1185,"cs2sA5sG5s1q3":1186,"5sA5s0p75":1187,"3sC4sE":1188,"5sF4s0p25":1189,"cs2sGw5sGw4s0p25":1190,"cs2sBt4sD5s0p25":1191,"cs3sA4sD":1192,"cs3sA5sD":1193,"cs3sF5sF":1194,"cs3sF3sGw":1195,"6sG6s0p5":1196,"rs5q6":1197,"cs2sE5sE6s0p5":1198,"cs3sFw4sC":1199,"cs3sBt4sG":1200,"cs2sFw5sFw4s0p25":1201,"7sBt6s0p25":1202,"cs2sC7sC6s0p25":1203,"2sFw":1204,"nsE5s3p0":1205,"4sC5s2p0":1206,"cs2sB3sG3s0p25":1207,"4sB3s1q3":1208,"cs2sD6sF6s0p25":1209,"cs2sA4sBt4s0p25":1210,"nsEt7s0p25":1211,"cs2sF3sA":1212,"cs2sF3sA3s0p5":1213,"7s2p0":1214,"cs3sG5sC":1215,"3sD4sF":1216,"cs3sF5sGw":1217,"cs3sEt4sFw":1218,"3sGw3s1p0":1219,"3sEt3s0p25":1220,"cs2sC5sE4s0p25":1221,"cs2sG5sG6s0p25":1222,"1s0p25":1223,"nsE6s0p75":1224,"nsB3s1p5":1225,"nsA6s1q3":1226,"4sB4sD":1227,"cs2sG4sD5s0p25":1228,"cs2sG3sE4s0p25":1229,"cs2sG3sE3s0p25":1230,"nsEt6s1q3":1231,"nsEt4s2p0":1232,"cs2sF3sF":1233,"cs2sF6sG6s0p25":1234,"5sA4s1q3":1235,"cs3sC5sGw":1236,"3sE3s1q3":1237,"cs3sA5sA":1238,"cs3sA6sA":1239,"cs2sFw4sFw5s0p25":1240,"6sB6s0p5":1241,"5sFw6s0p25":1242,"cs3sEt6sA":1243,"cs3sFw4sEt":1244,"cs2sE4sE3s0p25":1245,"3sEt4s1p0":1246,"cs2sA4sA5s1p0":1247,"cs2sC5sC4s0p5":1248,"2sC3s0p25":1249,"2sEt":1250,"cs2sEt5sEt6s0p25":1251,"5s2p25":1252,"cs2sB4sF5s0p25":1253,"cs2sG4sGw4s0p25":1254,"cs2sA4sCw5s0p25":1255,"cs2sF4sG4s1q3":1256,"5sB4sG":1257,"cs3sG3sF":1258,"cs3sA3sF":1259,"cs3sD6sF":1260,"6sG6s1q3":1261,"5sCw6sE":1262,"cs2sG4sG3s0p25":1263,"cs2sG4sG5s0p75":1264,"cs2sC5sE4s0p5":1265,"2sD3s0p5":1266,"4s2p25":1267,"nsA1s":1268,"cs2sE4sA4s1p0":1269,"cs2sC5sG5s0p25":1270,"cs2sC5sA5s0p25":1271,"cs2sC5sF5s0p25":1272,"4sB4s1p5":1273,"cs2sG3sC4s1p0":1274,"cs2sD5sGw5s0p25":1275,"cs2sD6sEt6s0p25":1276,"cs2sD6sE6s1q3":1277,"cs3sE4sCw":1278,"cs2sGw5sFw5s0p25":1279,"cs3sG3sG":1280,"cs2sC6sC7s0p25":1281,"rs17q12":1282,"cs2sEt5sEt4s0p25":1283,"cs2sEt6sEt5s0p25":1284,"cs2sE4sC5s1p0":1285,"cs2sE3sE4s0p25":1286,"cs2sE5sC5s1p0":1287,"cs2sC4sF4s0p5":1288,"cs2sC4sG3s0p25":1289,"cs2sB3sE4s0p25":1290,"cs2sG4sE5s0p25":1291,"cs2sG4sEt4s0p25":1292,"cs2sD7sD":1293,"cs2sA4sF5s0p25":1294,"4sA3s1q3":1295,"5sA5sG":1296,"cs2sEt5sC5s0p25":1297,"cs2sBt2sD3s0p25":1298,"4sEt5s1p0":1299,"4sCw5sE":1300,"cs2sCw5sD5s0p25":1301,"cs4sB4sG":1302,"7sEt7s0p25":1303,"cs2sD4sB3s0p5":1304,"2s3p0":1305,"nsC6s2p0":1306,"cs2sE4sB4s0p25":1307,"cs2sE5sD5s1q3":1308,"cs2sE3sG3s1p0":1309,"cs2sC4sG4s0p25":1310,"cs2sB3sD4s1p0":1311,"cs2sB2sB":1312,"cs2sG4sD4s0p25":1313,"cs2sG4sE4s0p5":1314,"cs2sG5sFw5s0p25":1315,"cs2sG6sA6s0p25":1316,"cs2sG3sB3s1p0":1317,"cs2sD4sG4s0p25":1318,"cs2sD5sEt5s0p25":1319,"cs2sD4sE4s1q3":1320,"nsEt3s0p5":1321,"5sG4s1q3":1322,"cs2sGw6sF6s0p25":1323,"3sB3s1q3":1324,"cs3sA5sE":1325,"cs3sF6sF":1326,"cs2sFw6sFw5s0p25":1327,"6sF6s1q3":1328,"cs4sE3sG":1329,"cs3sEt4sC":1330,"cs2sC6sC5s1p0":1331,"cs3sE4sC4sA3s0p5":1332,"cs2sC6sE5s0p25":1333,"nsA4s3p0":1334,"cs2sE2sE":1335,"cs2sE7sE6s0p25":1336,"cs2sC5sBt4s0p25":1337,"cs2sD5sFw5s0p25":1338,"cs2sA5sE5s0p25":1339,"cs2sA6sB6s0p25":1340,"4sA4s2p0":1341,"5sG5sB":1342,"cs3sC4sGw":1343,"5sD6s1q3":1344,"cs3sFw4sA":1345,"cs4sC6sG":1346,"cs2sF4sF5s1p0":1347,"7sF6s0p25":1348,"nsB2s0p5":1349,"nsA6s1p0":1350,"5sE6s1p0":1351,"cs2sG5sB5s0p25":1352,"cs2sF5sGw5s0p25":1353,"5sG6s0p5":1354,"3sC4sE4s0p25":1355,"cs3sA4sG":1356,"cs3sEt5sC":1357,"cs3sFw3sA":1358,"cs4sD5sF":1359,"cs2sE6sE5s1p0":1360,"cs5sG":1361,"nsD2s0p25":1362,"cs2sG5sC6s0p25":1363,"cs2sD5sG5s0p25":1364,"cs2sA5sCw":1365,"cs2sF3sG3s0p25":1366,"cs3sE6sG":1367,"5sD5sB":1368,"cs2sBt3sC4s0p25":1369,"cs3sF6sD":1370,"cs2sFw3sC4s0p5":1371,"6sB5sGw":1372,"cs3sBt4sE":1373,"3sFw3s0p5":1374,"cs2sF5sF6s0p5":1375,"cs2sGw4sGw5s0p5":1376,"2sBt":1377,"nsG6s1p0":1378,"nsD7s0p5":1379,"cs2sE5sC5s0p5":1380,"cs2sG5sBt":1381,"cs2sD3sD4s0p25":1382,"cs2sA5sB5s1q3":1383,"cs2sF5sC5s0p25":1384,"cs2sF6sA6s0p25":1385,"cs3sC5sEt":1386,"4sGw3s0p5":1387,"3sE4s0p75":1388,"cs3sG6sE":1389,"cs3sD5sA":1390,"cs4sD5sFw":1391,"4p5":1392,"nsB6s1q3":1393,"4sE4s0p75":1394,"4sG4sBt4s0p25":1395,"cs3sB4sEt":1396,"cs3sG3sD":1397,"cs3sG6sG":1398,"cs2sEt5sG5s0p25":1399,"cs2sBt4sG4s0p25":1400,"cs2sBt3sD4s0p25":1401,"cs2sFw5sE5s0p25":1402,"cs2sCw5sA5s0p25":1403,"cs3sD3sG":1404,"cs3sD6sB":1405,"3sF4s1q3":1406,"5sEt5s1q3":1407,"cs4sE4sGw":1408,"cs4sA4sC":1409,"cs3sC4sE4sA4s0p25":1410,"cs3sG3sC4sE4s1p0":1411,"2sCw":1412,"4s5":1413,"nsF3s2p0":1414,"nsA3s2p0":1415,"cs2sC5sG4s0p25":1416,"4sC5sE5s0p25":1417,"cs2sB4sGw4s0p5":1418,"nsGw5s0p75":1419,"cs2sG4sBt":1420,"cs2sG6sF6s0p25":1421,"cs2sG5sBt5s0p25":1422,"cs2sA6sF6s0p25":1423,"nsFw5s0p75":1424,"cs3sE6sCw":1425,"cs2sBt5sG5s0p25":1426,"cs3sD3sF":1427,"5sBt4sG":1428,"cs3sFw4sB":1429,"cs3sFw5sA":1430,"cs2sA4sA3s0p25":1431,"rs7q3":1432,"7sGw6s0p25":1433,"cs2sFw5sFw6s0p25":1434,"nsD6s0p75":1435,"nsD2s1p0":1436,"cs2sE5sCw5s0p25":1437,"cs2sE4sCw4s1q3":1438,"5sE5sD5s0p25":1439,"cs2sD4sG4s0p5":1440,"cs2sA4sC5s1p0":1441,"cs2sA4sFw4s0p25":1442,"4sA5s0p25":1443,"cs3sC5sFw":1444,"cs3sG3sBt":1445,"cs3sA3sD":1446,"6sA6s1q3":1447,"6sG5s1p0":1448,"cs4sE5sGw":1449,"cs3sEt5sFw":1450,"cs3sFw5sC":1451,"cs2sA4sA3s0p5":1452,"cs2sG3sG4s1p0":1453,"cs2sD5sF5s1p0":1454,"cs3sC4sA4sC5s0p25":1455,"cs3sE5sG5sC6s0p5":1456,"6p0":1457,"cs5sF":1458,"nsG2s1p0":1459,"nsE6s2p0":1460,"cs2sE4sGw4s0p25":1461,"4sE4s1p5":1462,"cs2sC5sGw4s0p25":1463,"cs2sB6sA6s0p25":1464,"cs2sA4sF":1465,"cs2sA3sF4s0p25":1466,"cs2sF4sD5s0p25":1467,"cs2sF3sF4s0p5":1468,"4sA4sC":1469,"4sD5s1q3":1470,"5sD4s0p25":1471,"cs2sGw5sE5s0p25":1472,"cs2sGw5sA5s0p25":1473,"cs2sGw3sA3s0p25":1474,"cs3sB5sD":1475,"3sD4s0p75":1476,"cs2sEt5sE5s0p25":1477,"6sA5sA":1478,"4sFw3s0p25":1479,"cs3sD4sD":1480,"5sEt5s0p5":1481,"6sF6s1p0":1482,"3sGw4s0p25":1483,"cs3sG3sC4sE4s0p25":1484,"cs2sC4sE3s1p0":1485,"cs5sD":1486,"5s3p5":1487,"3s1q12":1488,"nsE6s1p5":1489,"cs2sE5sC6s0p25":1490,"cs2sE4sGw4s1q3":1491,"4sE4s2p0":1492,"cs2sC4sFw4s0p25":1493,"5sE4s0p25":1494,"cs2sB2sG":1495,"cs2sB4sG5s0p25":1496,"4sB4s2p0":1497,"nsGw5s2p0":1498,"cs2sG3sA3s0p25":1499,"cs2sD5sA4s0p25":1500,"cs2sD5sE5s1q3":1501,"cs2sA4sB4s1q3":1502,"5sC6s2p0":1503,"cs2sF6sGw6s0p25":1504,"5sB5s0p75":1505,"cs3sE3sA":1506,"6sE6sC6s0p25":1507,"cs2sGw6sGw5s0p25":1508,"cs3sB5sE":1509,"cs3sG5sD":1510,"cs3sF3sA":1511,"cs2sCw4sE4s0p5":1512,"cs2sCw5sE5s1p0":1513,"cs3sD6sD":1514,"cs3sFw5sEt":1515,"cs4sA4sE":1516,"cs4sD5sE":1517,"cs3sC4sE4sG4s0p5":1518,"7sG6s0p25":1519,"cs2sGw5sGw6s0p25":1520,"2sGw":1521,"nsE5s1p75":1522,"nsA2s0p5":1523,"cs2sE3sE4s0p5":1524,"4sE5s0p75":1525,"cs2sC5sA5s1p0":1526,"cs2sB5sGw5s0p25":1527,"cs2sB2sD3s0p25":1528,"cs2sG6sE6s0p25":1529,"cs2sD3sG3s0p25":1530,"cs2sD5sC5s1q3":1531,"nsFw4s0p75":1532,"cs2sF3sC4s0p5":1533,"5sG5sE":1534,"cs3sB5sB":1535,"6sC6s1p0":1536,"6sC6sA5s0p25":1537,"cs2sEt4sFw4s0p25":1538,"cs2sBt5sD6s0p25":1539,"cs3sA4sC5sE5s1p0":1540,"cs3sF3sG":1541,"4sBt3s0p5":1542,"5sGw4s1q3":1543,"cs2sCw5sA5s0p5":1544,"5sEt5s1p0":1545,"cs3sCw5sA":1546,"cs4sB4sE":1547,"cs2sC5sC6s1p0":1548,"7sA6s1q3":1549,"cs2sB5sB6s0p25":1550,"cs2sB4sD5s0p75":1551,"nsG5s1p75":1552,"nsC6s1p5":1553,"nsC5s2p5":1554,"6s2q3":1555,"nsF3s0p75":1556,"nsB4s3p0":1557,"cs2sE6sG6s0p25":1558,"cs2sE3sE4s1p0":1559,"cs2sE5sB4s1q3":1560,"cs2sC6sBt5s0p25":1561,"4sB4sE":1562,"4sG5s0p5":1563,"cs2sD5sBt":1564,"cs2sD3sD4s0p5":1565,"cs2sA5sC5s0p25":1566,"cs2sA3sC4s1p0":1567,"cs2sA1s":1568,"5sC6s0p75":1569,"5sB5sD":1570,"nsCw3s1q3":1571,"cs2sGw5sF5s0p25":1572,"cs3sB4sC":1573,"cs2sBt3sD4s0p5":1574,"cs3sA4sCw":1575,"cs2sFw4sF4s0p25":1576,"cs2sCw5sA4s0p25":1577,"3sA3sC":1578,"cs4sG4sE":1579,"cs4sC4sE":1580,"3sFw4s0p5":1581,"cs2sG5sG6s0p5":1582,"2sC3s0p5":1583,"cs3sE4sG4sC5s1p0":1584,"cs2sC4sC3s0p25":1585,"cs2sC4sC3s0p5":1586,"nsG7s0p25":1587,"nsB5s1p5":1588,"cs2sE3sG":1589,"cs2sE4sA4s0p5":1590,"cs2sC4sE4s1q3":1591,"cs2sG2sG":1592,"5sC6sC":1593,"nsEt6s1p0":1594,"cs2sF4sB4s0p25":1595,"cs2sF3sD4s0p25":1596,"cs2sF5sD5s0p5":1597,"cs2sBt5sBt4s0p25":1598,"cs3sA6sF":1599,"6sB6s1q3":1600,"cs3sD6sA":1601,"cs2sE5sE4s1p0":1602,"cs3sFw5sFw":1603,"cs3sFw5sE5sC5s0p25":1604,"cs3sG3sC4sG4s1p0":1605,"cs3sD5sC5sD5s0p25":1606,"7q6":1607,"cs2sE5sB4s0p25":1608,"cs2sE6sCw6s0p25":1609,"cs2sC4sB3s0p25":1610,"5sE6s1q3":1611,"cs2sB3sF":1612,"nsGw4s2q3":1613,"cs2sG3sB3s0p25":1614,"cs2sD4sF4s1p0":1615,"cs2sD3sB3s0p5":1616,"cs2sD3sF3s0p5":1617,"cs2sA4sC4s0p25":1618,"cs2sA5sFw5s0p25":1619,"cs2sA3sE4s0p25":1620,"5sC6sEt":1621,"nsEt5s2p0":1622,"nsFw7s0p25":1623,"cs2sF3sCw4s0p5":1624,"4sF4s0p75":1625,"nsCw5s0p75":1626,"cs3sE4sD":1627,"cs3sE6sB":1628,"5sF5sG5s0p25":1629,"4sGw4s0p75":1630,"cs2sGw5sB5s0p25":1631,"cs2sEt4sG4s0p5":1632,"cs2sEt5sFw5s0p25":1633,"cs3sA4sEt":1634,"cs3sA3sA":1635,"5sGw4s1p0":1636,"4sCw4s0p5":1637,"cs2sCw4sD4s0p25":1638,"cs3sD5sGw":1639,"6sD5s0p25":1640,"6sF6s0p5":1641,"5sBt5sF":1642,"cs4sE6sC":1643,"cs3sEt4sA":1644,"cs4sG5sE":1645,"cs4sC5sA":1646,"cs4sC6sE":1647,"cs3sBt4sF":1648,"cs4sA6sG":1649,"cs3sCw6sE":1650,"2sD3s1p0":1651,"cs2sA5sA6s0p5":1652,"cs2sF6sF5s0p5":1653,"2sB2s0p25":1654,"cs2sA1sA":1655,"3q12":1656,"5s5":1657,"nsE3s0p75":1658,"nsC4s2p5":1659,"nsA3s1p5":1660,"cs2sE5sGw5s0p25":1661,"cs2sE5sG5s1p0":1662,"nsGw4s3p0":1663,"cs2sD5sBt4s0p25":1664,"cs2sA4sCw5s1q3":1665,"cs2sA4sC5s0p75":1666,"nsFw5s1p5":1667,"cs2sF3sA3s0p25":1668,"cs2sF4sGw4s0p5":1669,"cs3sE4sBt":1670,"7s1p5":1671,"6sC7s0p5":1672,"cs2sFw6sFw":1673,"cs2sE4sE3s0p5":1674,"cs2sC5sE5s1q3":1675,"cs2sC5sE5s0p75":1676,"cs2sC5sC4s1p0":1677,"cs2sBt4sBt5s0p25":1678,"cs2sE4sG4s2p0":1679,"7q3":1680,"nsD4s3p0":1681,"cs2sC3sC4s0p5":1682,"cs2sC3sGw3s0p5":1683,"cs2sB4sG4s0p5":1684,"cs2sB4sGw5s0p25":1685,"cs2sG4sC5s0p5":1686,"cs2sG3sD4s0p25":1687,"cs2sD4sB4s0p25":1688,"cs2sD5sB5s0p25":1689,"cs2sA4sD5s0p25":1690,"nsFw6s1q3":1691,"cs2sF4sD":1692,"cs2sF3sF4s0p25":1693,"nsBt2s1p0":1694,"5sD5s2q3":1695,"4sGw4s1p5":1696,"cs2sGw6sGw":1697,"cs2sGw3sC4s0p5":1698,"cs2sGw5sB5s0p5":1699,"cs3sB5sEt":1700,"cs2sFw5sEt5s0p25":1701,"cs2sCw5sCw6s0p25":1702,"6sF5s0p5":1703,"rs5p0":1704,"cs3sGw3sD":1705,"cs3sC4sE4sG4s1p0":1706,"2sD2s0p25":1707,"cs4sGw4sE":1708,"7sCw7s0p25":1709,"7sFw6s0p25":1710,"cs2sD4sB3s1p0":1711,"cs2sGw3sGw4s0p25":1712,"cs2sD7sD6s0p25":1713,"cs5sA":1714,"nsE2s1p0":1715,"6s2p5":1716,"nsD5s3p0":1717,"cs2sC6sG5s0p25":1718,"cs2sC3sBt3s0p5":1719,"cs2sC4sEt4s0p5":1720,"4sC4s0p75":1721,"cs2sB6sB5s0p25":1722,"cs2sB3sA3s0p25":1723,"cs2sB5sD6s0p5":1724,"nsGw6s1q3":1725,"cs2sG3sB":1726,"cs2sG3sB3s0p5":1727,"cs2sG3sBt3s0p5":1728,"5sC6sE6s0p25":1729,"nsEt5s1p5":1730,"cs2sF3sB3s0p5":1731,"5sG5sC6s0p25":1732,"cs3sC3sF":1733,"6sE6s1p0":1734,"4sGw4sB4s0p25":1735,"3sD4s1q3":1736,"cs3sA4sFw":1737,"cs3sF5sC":1738,"6sA5sC6s0p25":1739,"6sG6s1p0":1740,"3sA3s1q3":1741,"cs3sGw5sGw":1742,"6sEt5s0p25":1743,"cs2sGw4sGw3s0p5":1744,"cs2sA3sA4s1p0":1745,"cs3sG4sE5sG5s0p25":1746,"cs3sE3sG3sC4s0p5":1747,"cs2sBt4sBt5s0p5":1748,"cs2sB3sG4s1p0":1749,"cs3sC5sD5sC5s0p25":1750,"cs4sG4sBt4sG4sBt4s0p25":1751,"cs2sB3sD4s1q3":1752,"rs13q6":1753,"nsF3s1p5":1754,"nsA4s2q3":1755,"cs2sE3sA3s0p25":1756,"cs2sC7sE":1757,"cs2sC7sD7s0p25":1758,"cs2sG4sD5s0p5":1759,"cs2sD3sF3s0p25":1760,"cs2sA4sC5s1q3":1761,"5sC4s0p25":1762,"nsEt4s1p5":1763,"cs2sF5sB5s0p25":1764,"nsBt4s2p0":1765,"nsBt3s1p5":1766,"nsBt2s0p5":1767,"5sG5s1p5":1768,"5sG5s2p0":1769,"3sC4sEt":1770,"cs3sE3sE":1771,"cs3sE5sC6sE":1772,"5sF4s1p0":1773,"5sF5sD":1774,"cs3sG4sCw":1775,"cs2sBt3sE4s0p5":1776,"cs3sA3sFw":1777,"4sEt4s1q3":1778,"cs2sFw5sA5s0p25":1779,"5sGw4s0p5":1780,"4sFw3s0p5":1781,"cs3sD3sB":1782,"cs3sGw5sD":1783,"cs3sGw3sE":1784,"cs4sE6sE":1785,"cs4sB5sEt":1786,"cs2sG4sG5s1p0":1787,"cs3sC4sE4sC5s0p25":1788,"1sG":1789,"cs2sD4sD3s0p25":1790,"cs3sD4sE4sD4s0p25":1791,"cs4sA6sG6sE6sC6s0p25":1792,"nsG3s":1793,"nsC2s0p25":1794,"cs2sE5sC6s0p5":1795,"4sC4s2p0":1796,"4sG3s1q3":1797,"4sG4s1p5":1798,"cs2sG5sD5s0p25":1799,"cs2sG5sB4s0p25":1800,"cs2sG4sE4s1p0":1801,"cs2sG4sB4s1p0":1802,"cs2sG4sB3s0p5":1803,"cs2sD3sB2s0p25":1804,"cs2sF4sC5s0p25":1805,"cs2sF5sA5s0p5":1806,"cs3sC5sB":1807,"6sE7s0p25":1808,"3sD3s1p0":1809,"cs3sA5sFw":1810,"4sBt4s0p75":1811,"5sGw6s0p25":1812,"cs2sCw4sCw5s0p25":1813,"cs2sE5sE6s1q3":1814,"cs3sEt5sB":1815,"cs3sBt3sF":1816,"6sEt6sFw":1817,"cs4sB5sE":1818,"6sBt5s1p0":1819,"cs4sF5sG":1820,"1s1p0":1821,"cs2sEt4sEt5s0p5":1822,"cs4sE5sG5sC6sE":1823,"cs4sC4sG3sE":1824,"nsC7s1p0":1825,"nsB5s2p0":1826,"cs2sE5sG5s1q3":1827,"cs2sC5sG5s0p5":1828,"cs2sG5sE5s1q3":1829,"cs2sA4sGw4s0p25":1830,"cs2sF6sC6s0p25":1831,"cs2sF3sB3s0p25":1832,"5sB4s0p75":1833,"5sA5s2p0":1834,"cs2sGw4sB4s1q3":1835,"cs3sB5sGw":1836,"3sG3s0p75":1837,"cs2sEt5sB4s0p25":1838,"cs3sF3sD":1839,"cs3sF5sBt":1840,"6sD7s1p0":1841,"cs3sGw5sC":1842,"cs3sGw4sEt":1843,"cs3sEt5sGw":1844,"cs4sC4sE4sG":1845,"cs3sBt3sD":1846,"cs4sA4sB":1847,"cs4sA4sC5sE":1848,"cs4sD4sG4sB":1849,"3sBt3s1p0":1850,"cs3sC4sE4sG4s0p25":1851,"cs2sF4sF3s0p5":1852,"cs2sB4sB5s1p0":1853,"cs2sC6sE6s0p5":1854,"cs3sC4sA3sA":1855,"cs3sE3sC4sE4s0p5":1856,"cs2sB4sG5s0p5":1857,"cs2sFw3sFw4s0p25":1858,"nsD6s2p0":1859,"cs2sB4sD4s0p25":1860,"cs2sG3sE":1861,"cs2sG5sE5s0p5":1862,"cs2sG5sA5s1q3":1863,"cs2sG4sBt4s0p5":1864,"cs2sD4sFw4s0p25":1865,"cs2sA5sC6s0p5":1866,"cs2sF4sD4s1p0":1867,"cs3sE5sD":1868,"5sF6s0p5":1869,"4sGw4s2p0":1870,"cs2sGw4sE5s0p25":1871,"cs3sG4sA":1872,"cs2sEt3sEt":1873,"cs2sBt3sCw4s0p25":1874,"cs2sBt3sG4s0p25":1875,"cs3sF4sE":1876,"cs2sFw6sE6s0p25":1877,"5sEt5sFw":1878,"5sBt4s0p5":1879,"5sBt5s0p5":1880,"5sCw6s1p0":1881,"cs4sE5sCw":1882,"cs3sEt6sC":1883,"cs4sG5sG":1884,"cs3sBt4sBt":1885,"cs3sBt5sBt":1886,"cs4sF5sD":1887,"cs4sF5sGw":1888,"4sC5sE5s0p5":1889,"cs2sA5sA6s1p0":1890,"cs3sC4sF4sA4s0p25":1891,"cs3sF4sD5sF5s0p25":1892,"2sA2s0p25":1893,"cs2sB3sG4s0p25":1894,"cs3sF3sC4sF4s1p0":1895,"nsG4s1p25":1896,"6s4q3":1897,"nsB3s3p0":1898,"cs2sE4sG4s1q3":1899,"cs2sE7sF7s0p25":1900,"cs2sC5sC5s0p25":1901,"4sC4s1p5":1902,"cs2sB5sD5s0p25":1903,"cs2sB4sCw5s0p25":1904,"cs2sB4sC5s1q3":1905,"cs2sB4sA4s1q3":1906,"nsGw5s1p5":1907,"cs2sG5sEt5s0p25":1908,"cs2sG4sE5s0p5":1909,"cs2sG6sG5s0p5":1910,"cs2sD4sB4s0p5":1911,"cs2sD4sEt4s0p25":1912,"nsEt2s0p25":1913,"nsFw6s1p0":1914,"4sD5s1p5":1915,"nsBt2s1q3":1916,"4sF5s0p75":1917,"nsCw2s0p25":1918,"5sF4s0p5":1919,"cs2sGw3sC4s0p25":1920,"cs3sB5sF":1921,"cs3sG3sCw":1922,"cs2sBt6sBt5s0p25":1923,"4sFw4sG4s0p25":1924,"cs3sGw5sF":1925,"cs4sE5sE":1926,"cs3sEt5sEt":1927,"cs3sEt6sFw":1928,"cs3sBt4sD":1929,"cs3sBt3sG":1930,"6sFw6s0p5":1931,"6sFw6s1q3":1932,"cs4sD6sB":1933,"cs2sE4sE5s1p5":1934,"cs4sGw4sC":1935,"cs4sGw5sE":1936,"cs2sE4sC4s1q3":1937,"cs3sD4sF4sG4s0p25":1938,"cs3sF4sGw4sB4s0p25":1939,"7sFw7s0p25":1940,"cs2sD4sB3s1q3":1941,"cs2sD4sF4s1q3":1942,"cs3sE4sB4sE5s0p25":1943,"3p75":1944,"8s0p25":1945,"cs5sE":1946,"nsD3s0p75":1947,"cs2sE6sG5s0p25":1948,"cs2sC3sE":1949,"cs2sB5sE6s0p25":1950,"cs2sB4sE5s0p5":1951,"nsGw2s1q3":1952,"cs2sG4sC5s1p0":1953,"cs2sG4sCw5s0p25":1954,"cs2sG5sF5s1q3":1955,"cs2sD6sF5s0p25":1956,"cs2sA3sCw4s0p25":1957,"cs2sF3sG3s0p5":1958,"4sD5s2p0":1959,"nsCw4s0p75":1960,"nsCw5s1p5":1961,"nsCw5s2p0":1962,"5sA5sF":1963,"3sC3s1q3":1964,"cs3sE6sA":1965,"cs3sC6sF":1966,"5sD6s0p75":1967,"4sGw3s1p0":1968,"cs2sGw4sB4s1p0":1969,"cs2sGw6sFw6s0p25":1970,"6sC7s1p0":1971,"cs3sG4sEt":1972,"3sG4s1p0":1973,"3sG3sB":1974,"4sEt4s0p75":1975,"cs2sFw4sEt4s0p25":1976,"cs2sFw4sG4s1q3":1977,"cs2sCw4sCw":1978,"cs3sD4sC":1979,"6sG5sBt5sF":1980,"cs3sEt5sA":1981,"cs3sEt6sEt":1982,"cs4sG4sB":1983,"cs4sG5sA5sG":1984,"6sGw5s1q3":1985,"cs3sBt5sE":1986,"cs3sBt4sCw":1987,"6sCw6s1q3":1988,"6sBt5s0p5":1989,"3sFw4s0p25":1990,"3sFw3s1q3":1991,"cs2sF5sF6s1p0":1992,"cs2sG3sG4s1q3":1993,"cs4sEt5sFw":1994,"cs3sE4sG4sC5s0p25":1995,"cs2sC6sE5s0p5":1996,"cs2sBt3sBt4s0p25":1997,"cs2sB3sG4s0p5":1998,"cs2sBt5sBt4s0p5":1999,"cs2sA2sA3s0p25":2000,"cs6sE6sG5sBt5sF":2001,"24":2002,"5s2p75":2003,"nsE4s1p25":2004,"nsF2s1q3":2005,"nsA4s2p5":2006,"cs2sE5sE5s0p25":2007,"cs2sE4sFw4s0p25":2008,"4sE3s0p25":2009,"4sE5s1p5":2010,"cs2sC5sA5s0p5":2011,"cs2sC6sA5s0p5":2012,"cs2sB3sF4s0p25":2013,"4sB5s0p25":2014,"cs2sG4sC5s1q3":2015,"cs2sD4sG4s1p0":2016,"cs2sD3sE3s0p25":2017,"cs2sD5sB5s0p5":2018,"cs2sA3sD4s0p5":2019,"cs2sF3sGw3s0p5":2020,"nsBt5s0p75":2021,"4sF4s2p0":2022,"5sA5s1p5":2023,"cs3sE5sCw":2024,"cs2sGw4sD5s0p25":2025,"cs2sGw4sC5s0p5":2026,"cs3sB4sFw":2027,"cs3sG5sA":2028,"cs2sBt5sCw6s0p25":2029,"4sEt5s1q3":2030,"cs2sFw3sG3s0p25":2031,"4sBt4s1q3":2032,"4sFw5s0p5":2033,"cs2sCw4sF4s0p25":2034,"cs2sCw6sBt5s0p25":2035,"cs2sCw4sCw5s0p5":2036,"rs23q12":2037,"cs3sD6sG":2038,"5sBt5s1p0":2039,"cs3sGw4sCw":2040,"cs3sGw3sCw":2041,"cs4sE4sD":2042,"cs3sEt3sC":2043,"cs4sG4sG":2044,"cs4sG4sD":2045,"cs4sG5sB":2046,"cs3sBt3sEt":2047,"cs4sA5sE":2048,"cs4sD4sFw":2049,"cs2sA5sA4s1p0":2050,"cs2sD6sD7s0p25":2051,"cs3sE4sG4sC5s0p5":2052,"cs3sA4sC5sE5s0p25":2053,"cs2sC4sE4s2p0":2054,"cs3sG3sE4sG4s0p25":2055,"cs2sGw3sGw4s0p5":2056,"cs2sCw5sCw6s0p5":2057,"cs2sCw6sCw5s0p25":2058,"cs4sE4sE5sE":2059,"cs4sD5sE5sD":2060,"cs6sB":2061,"cs6sA":2062,"4s7q3":2063,"3s4p0":2064,"3s1q6":2065,"nsC5s1p25":2066,"nsB2s0p75":2067,"cs2sE5sB5s0p25":2068,"cs2sE5sBt4s0p25":2069,"cs2sC2sC":2070,"cs2sC5sD5s1q3":2071,"cs2sC6sD6s1q3":2072,"4sC5sB":2073,"cs2sB4sEt5s0p25":2074,"4sG5s1p0":2075,"cs2sG3sGw3s0p25":2076,"cs2sG5sC6s1q3":2077,"cs2sD4sA4s0p25":2078,"cs2sD4sG3s0p5":2079,"cs2sA4sF4s1p0":2080,"cs2sA3sFw3s0p25":2081,"cs2sA3sC3s0p5":2082,"cs2sA6sG6s1q3":2083,"5sC6sF":2084,"cs2sF3sB":2085,"cs2sF4sB4s0p5":2086,"cs2sF3sF4s1p0":2087,"cs2sF4sA4s1p5":2088,"cs3sE7sF":2089,"cs3sC3sG":2090,"5sF5s1p5":2091,"cs2sGw5sG5s1q3":2092,"3sE3sG":2093,"cs3sG4sC5sE5s1p0":2094,"cs2sEt4sB3s0p25":2095,"cs2sEt4sC4s1q3":2096,"cs2sBt3sG3s0p25":2097,"cs2sBt3sG4s0p5":2098,"cs3sA5sB":2099,"cs2sFw3sA3s0p25":2100,"cs3sD4sBt":2101,"cs3sD4sFw":2102,"5sFw4s0p5":2103,"3sF4s0p75":2104,"3sF3s2p0":2105,"5sEt6s0p5":2106,"3sA2s0p25":2107,"5sBt5sCw":2108,"5sCw5s0p5":2109,"cs3sGw6sE":2110,"cs3sGw4sGw":2111,"cs4sE4sC":2112,"cs4sE5sD":2113,"cs3sEt4sBt":2114,"cs3sFw4sD":2115,"cs4sG3sBt":2116,"cs4sG4sC5sE":2117,"6sGw5s0p5":2118,"cs4sC4sA":2119,"cs4sC5sG":2120,"cs3sBt5sG":2121,"cs3sBt3sC":2122,"cs4sD5sC":2123,"3sEt3s0p5":2124,"3sCw3s0p25":2125,"cs2sF4sF5s2p0":2126,"cs4sBt4sG":2127,"cs2sB3sB4s1p0":2128,"cs4sCw5sE":2129,"cs3sE4sG4sE5s0p25":2130,"cs2sGw4sGw5s1p0":2131,"cs2sD5sF4s0p25":2132,"cs2sBt3sBt4s1p0":2133,"cs2sC4sC5s2p0":2134,"cs3sG4sC5sE5s0p25":2135,"cs4sD4sF4sGw4sB4s0p25":2136,"rs13q12":2137,"cs3sF5sG5sF5s0p25":2138,"cs5sB":2139,"nsG4s2q3":2140,"nsE3s2p0":2141,"nsC7s1q3":2142,"nsF5s3p0":2143,"cs2sE5sC":2144,"cs2sC4sF4s1p0":2145,"cs2sC5sF5s1q3":2146,"cs2sC4sGw3s0p25":2147,"cs2sC4sEt4s1p0":2148,"cs2sB5sD6s1p0":2149,"cs2sG4sB3s0p25":2150,"cs2sA6sA5s1p0":2151,"cs2sA2sFw":2152,"cs2sF4sG4s1p0":2153,"cs2sF4sB3s0p25":2154,"cs2sF5sD5s1q3":2155,"cs2sF4sA3s0p5":2156,"cs2sF5sA5s1q3":2157,"5sA4s0p75":2158,"5sA5sB5s0p25":2159,"cs3sC6sG":2160,"cs2sGw4sG4s0p25":2161,"3sE4s1p5":2162,"cs3sB2sF":2163,"3sB4s0p25":2164,"3sG3sBt":2165,"cs2sEt4sFw4s0p5":2166,"cs2sFw4sC5s0p25":2167,"cs2sFw5sB5s0p25":2168,"cs2sFw6sG6s0p25":2169,"4sBt3s1p0":2170,"4sCw5s0p75":2171,"6sA5s1p5":2172,"5sEt5sC":2173,"6sF7s0p25":2174,"5sBt4s1p0":2175,"5sCw5s1p0":2176,"cs3sFw3sC":2177,"cs4sC4sEt":2178,"cs3sBt3sCw":2179,"cs3sBt6sBt":2180,"cs3sCw5sG":2181,"cs4sB4sF":2182,"cs4sF4sGw":2183,"cs4sEt5sC":2184,"cs2sE4sC4s1p5":2185,"cs3sC5sE5sA5s0p25":2186,"cs3sA4sC5sA5s0p25":2187,"rs3p25":2188,"cs2sEt5sEt6s0p5":2189,"cs3sG4sB4sD5s0p25":2190,"cs3sE4sA4sC5s0p25":2191,"2sF3s0p25":2192,"cs2sB5sB4s1p0":2193,"cs3sE3sG3sC4s0p25":2194,"cs3sA4sE5sA5s0p25":2195,"cs2sGw5sGw4s0p5":2196,"cs2sCw5sCw4s0p25":2197,"cs2sEt4sEt5s1p0":2198,"cs3sF3sC4sF4s0p5":2199,"cs4sE4sGw4sD":2200,"cs4sB5sEt6sA":2201,"8q3":2202,"nsG5s1p25":2203,"nsE2s1q3":2204,"nsE2s0p5":2205,"nsE4s1p75":2206,"cs2sE3sC":2207,"cs2sE4sA3s0p25":2208,"cs2sE5sC5s1q3":2209,"cs2sE4sGw4s1p0":2210,"cs2sE3sA3s1p0":2211,"cs2sC4sA4s1p0":2212,"cs2sC6sA5s1p0":2213,"cs2sC5sG4s1q3":2214,"5sE5s0p75":2215,"5sE6s0p75":2216,"cs2sB6sD7s0p25":2217,"cs2sG2sD3s0p5":2218,"cs2sD5sA5s0p25":2219,"cs2sD7sC7s0p25":2220,"cs2sA4sF4s0p5":2221,"cs2sA5sF5s0p5":2222,"cs2sA3sC4s1q3":2223,"5sC6s1p5":2224,"cs2sF3sD4s1p0":2225,"nsBt5s1p5":2226,"4sF5s1q3":2227,"cs3sC6sGw":2228,"cs3sC7sA":2229,"5sD5s0p75":2230,"6sE5s1p0":2231,"7s1q6":2232,"cs3sB3sA":2233,"cs3sB3sEt":2234,"cs3sG6sB":2235,"cs3sG3sA":2236,"3sD3s0p5":2237,"cs3sA3sCw":2238,"4sEt5s0p75":2239,"cs3sF6sA":2240,"cs2sCw5sBt4s0p25":2241,"cs3sD3sA":2242,"6sD6s1p0":2243,"5sBt4s1q3":2244,"5sBt5s1q3":2245,"cs3sGw6sGw":2246,"cs3sFw6sFw":2247,"3sGw4s1p0":2248,"cs4sG3sC":2249,"cs4sC6sA":2250,"cs4sD5sA":2251,"cs3sC4sE4sA4s1p0":2252,"7sB7s0p25":2253,"cs2sC5sC6s0p75":2254,"4sC5sE5s0p75":2255,"7sA7s0p25":2256,"cs4sCw5sF":2257,"2sE3s0p5":2258,"cs3sA3sC4sA4s1p0":2259,"7sEt6s0p25":2260,"cs2sGw3sGw4s1p0":2261,"cs2sE4sG4s0p75":2262,"cs2sBt5sBt6s0p25":2263,"cs2sCw6sCw5s0p5":2264,"cs3sF4sG4sF4s0p25":2265,"cs6sGw":2266,"nsG2s0p5":2267,"nsG5s3p0":2268,"rs8q3":2269,"nsE4s2q3":2270,"nsA1s0p5":2271,"cs2sE7sE":2272,"cs2sE5sA5s0p5":2273,"cs2sE3sF3s0p25":2274,"4sE3s0p5":2275,"cs2sC4sA":2276,"cs2sC4sGw4s0p25":2277,"cs2sC4sG4s0p5":2278,"cs2sC7sA":2279,"cs2sC6sEt6s0p25":2280,"cs2sC4sA3s0p5":2281,"cs2sC5sB4s1q3":2282,"cs2sB5sF5s0p25":2283,"cs2sB3sG3s1p0":2284,"cs2sB5sEt6s0p25":2285,"cs2sB4sF5s0p5":2286,"4sG3s0p75":2287,"nsGw7s0p25":2288,"nsGw3s1p5":2289,"cs2sG5sC5s0p25":2290,"cs2sG4sA4s1q3":2291,"cs2sD5sG4s0p25":2292,"cs2sD5sB5s1p0":2293,"cs2sD6sB5s1p0":2294,"cs2sA4sD5s0p5":2295,"nsFw2s0p25":2296,"cs2sF6sA5s0p25":2297,"cs2sF3sGw3s0p25":2298,"cs2sGw4sCw5s1q3":2299,"3sE4s2p0":2300,"cs3sB6sB":2301,"6sC7sC":2302,"3sG3s1q3":2303,"3sD4s2p0":2304,"cs2sEt3sG3s0p5":2305,"cs2sBt5sB5s0p25":2306,"cs3sA3sB":2307,"cs2sFw6sA6s0p25":2308,"5sGw5s0p75":2309,"5sGw5s1p5":2310,"cs2sCw3sCw4s0p25":2311,"cs4sE6sA":2312,"cs4sE6sD":2313,"cs3sFw4sGw":2314,"cs4sC3sEt":2315,"6sEt7s0p25":2316,"cs3sCw4sA":2317,"cs3sCw5sEt":2318,"cs3sCw6sCw":2319,"3sCw4sE":2320,"cs4sF6sF":2321,"cs4sF3sG3sB":2322,"cs4sFw3sA3sC":2323,"1sB":2324,"cs3sB3sD4sG4s1p0":2325,"cs2sGw5sGw6s0p5":2326,"cs3sB4sD5sG5s1p0":2327,"cs3sD4sB4sD5s0p25":2328,"cs3sB4sGw4sE4s0p25":2329,"cs4sG4sBt4sE":2330,"cs2sF3sA3s0p75":2331,"cs6sE6sG5sBt5sF6sA5sC6s0p25":2332,"cs5sBt":2333,"4s3p5":2334,"nsC2s1p0":2335,"nsC5s1p75":2336,"nsF6s2p0":2337,"nsB7s0p25":2338,"nsB6s1p0":2339,"nsB2s1p0":2340,"nsB5s1p25":2341,"nsB1s0p25":2342,"nsD5s2q3":2343,"nsA4s1p25":2344,"nsA4s1q12":2345,"cs2sE3sCw":2346,"cs2sE4sBt4s0p25":2347,"cs2sE5sF5s1q3":2348,"cs2sC4sEt":2349,"cs2sC3sE3s0p5":2350,"cs2sC6sB5s1q3":2351,"cs2sG4sC4s0p25":2352,"cs2sG5sE6s0p25":2353,"cs2sG3sBt3s0p25":2354,"cs2sG6sE6s0p5":2355,"cs2sD6sA5s0p25":2356,"cs2sD5sB4s1p0":2357,"cs2sA5sD5s0p25":2358,"cs2sA3sD4s1p0":2359,"cs2sA3sE4s0p5":2360,"cs2sA4sE5s0p5":2361,"cs2sA4sC4s0p5":2362,"cs2sA5sCw6s0p25":2363,"cs2sA5sC6s1p0":2364,"nsFw2s1q3":2365,"cs2sF5sA4s0p25":2366,"cs2sF5sD6s0p25":2367,"4sA3s1p5":2368,"nsBt5s2p0":2369,"nsBt3s0p75":2370,"4sF4sE":2371,"cs3sE6sD":2372,"cs3sE6sF":2373,"cs3sC3sEt":2374,"4sGw5s0p5":2375,"cs2sGw5sG5s0p25":2376,"cs2sGw4sE4s0p25":2377,"cs2sGw3sEt4s0p5":2378,"3sE4s1q3":2379,"cs3sG3sEt":2380,"cs2sEt4sGw4s0p25":2381,"cs2sEt5sCw5s0p25":2382,"cs2sEt4sG3s0p5":2383,"cs2sBt4sA4s0p25":2384,"cs2sBt4sGw4s0p25":2385,"cs2sBt3sE4s1p0":2386,"cs2sBt2sBt":2387,"cs3sA6sE":2388,"cs3sF6sBt":2389,"cs2sFw5sGw5s1q3":2390,"6sB6s1p0":2391,"cs2sCw5sG5s0p25":2392,"cs2sCw4sE4s1q3":2393,"cs2sCw7sCw":2394,"cs2sCw4sBt3s0p25":2395,"5sFw4s1q3":2396,"5sFw5sA5s0p25":2397,"5sEt4s0p25":2398,"5sCw5sD5s0p25":2399,"cs3sGw4sC5sE5s1p0":2400,"cs3sEt4sB":2401,"cs3sEt4sEt":2402,"cs3sEt5sBt":2403,"cs3sFw4sE":2404,"cs3sFw3sB":2405,"3sGw3sC4s0p25":2406,"cs4sG5sE5sC":2407,"cs4sC5sC":2408,"cs3sBt4sC":2409,"cs3sBt3sC4sE4s0p25":2410,"cs4sD6sC":2411,"cs4sD4sA4sC":2412,"cs3sCw6sA":2413,"cs4sB3sB":2414,"cs4sB3sG":2415,"7sC7sG":2416,"7sC8s":2417,"cs2sC5sE4s1p0":2418,"cs2sC5sE5s2p0":2419,"cs2sG5sG4s1p0":2420,"cs4sEt4sG":2421,"cs4sBt4sC":2422,"cs2sA5sA6s1q3":2423,"cs4sCw6sE":2424,"cs3sD4sF4sB4s0p25":2425,"cs3sD4sF4sB4s1p0":2426,"cs2sF6sF5s1p0":2427,"cs2sEt5sEt4s0p5":2428,"cs3sC4sF4sA4s0p5":2429,"cs3sF4sA4sC5s1p0":2430,"cs2sC4sE3s0p5":2431,"5sC6sE5s0p25":2432,"cs3sC5sG5sE5s1p0":2433,"cs2sD4sF3s0p5":2434,"cs3sG4sC5sE5s0p5":2435,"cs3sB3sGw4sB4s0p25":2436,"cs4sE4sE5sE4sE5s0p25":2437,"cs4sFw3sA3sC4sFw4s0p25":2438,"nsG5s2q3":2439,"nsC4s1p25":2440,"nsD5s1p25":2441,"nsA5s1p75":2442,"cs2sE5sA4s0p25":2443,"cs2sE3sFw3s0p25":2444,"5sE5sG5s0p25":2445,"cs2sB6sB":2446,"4sG4sE4s0p25":2447,"nsGw3s0p75":2448,"cs2sG4sG4s0p25":2449,"cs2sD6sFw":2450,"cs2sD3sFw3s0p25":2451,"cs2sA5sD6s0p25":2452,"cs2sA6sFw6s0p25":2453,"cs2sA4sFw4s0p5":2454,"cs2sA4sC4s1q3":2455,"cs2sA3sE3s1q3":2456,"cs2sF3sC4s0p25":2457,"cs2sF4sD5s0p5":2458,"cs2sF3sG3s1p0":2459,"4sA4sC5s0p25":2460,"nsBt6s1q3":2461,"4sF4sF":2462,"4sF4s1p5":2463,"nsCw4s1p5":2464,"5sA5sB":2465,"cs3sE5sBt":2466,"cs3sC4sD":2467,"cs3sC3sFw":2468,"5sD5sEt":2469,"6sE5s0p5":2470,"cs2sGw4sCw5s0p25":2471,"cs2sEt4sC4s0p5":2472,"cs2sBt4sCw5s0p5":2473,"cs2sFw5sD5s0p25":2474,"cs2sFw4sD5s0p25":2475,"cs2sCw5sD5s1q3":2476,"cs2sCw5sE5s1q3":2477,"cs3sD5sE5sD5s0p25":2478,"cs3sEt3sG":2479,"cs3sFw6sA":2480,"cs3sFw5sBt":2481,"cs4sG5sD5sB":2482,"6sGw6s0p5":2483,"cs4sC6sC":2484,"cs3sBt4sEt":2485,"cs4sA4sA":2486,"cs4sA3sC":2487,"cs4sD5sG":2488,"cs4sD5sD":2489,"3sBt3s1q3":2490,"cs4sB5sB":2491,"cs4sB4sGw":2492,"cs4sB3sD":2493,"cs4sF4sA":2494,"cs4sF5sF":2495,"cs4sF4sBt":2496,"cs2sG5sG6s1p0":2497,"cs2sG3sG4s0p75":2498,"cs4sFw5sA":2499,"cs2sE4sC5s1p5":2500,"cs3sC5sE5sG5s0p25":2501,"cs3sG4sE5sG5s0p5":2502,"2sG2s0p5":2503,"cs3sF4sA4sD5s1p0":2504,"cs2sC4sE4s0p75":2505,"cs2sC6sE6s1p0":2506,"cs2sFw5sFw4s0p5":2507,"cs2sEt6sEt5s0p5":2508,"cs3sE4sGw4sB4s0p25":2509,"cs2sB3sF4s1p5":2510,"cs3sGw3sD4sGw4s1q3":2511,"9q12":2512,"nsE3s1p5":2513,"nsE7s0p5":2514,"nsE5s2p5":2515,"nsE4s2p75":2516,"nsC3s1p5":2517,"nsC5s4q3":2518,"cs2sE4sB4s0p5":2519,"cs2sE5sG4s0p25":2520,"cs2sE4sF4s1q3":2521,"cs2sC7sA6s0p25":2522,"cs2sB4sG4s1p0":2523,"cs2sB5sEt5s0p25":2524,"cs2sB3sGw3s0p25":2525,"cs2sG4sFw4s0p25":2526,"cs2sD6sC6s1q3":2527,"cs2sD6sB5s0p5":2528,"cs2sA3sD4s0p25":2529,"cs2sA5sGw5s0p25":2530,"cs2sA4sE4s1q3":2531,"5sC5sE":2532,"cs2sF4sBt4s0p25":2533,"cs2sF5sEt5s0p25":2534,"cs2sF4sC4s0p5":2535,"cs2sF5sA5s1p0":2536,"cs2sF5sE5s1q3":2537,"cs2sF4sC4s1q3":2538,"4sA4sG4s0p25":2539,"nsBt6s0p5":2540,"5sG6s1p0":2541,"cs3sE5sF":2542,"cs3sC7sC":2543,"cs2sGw5sC6s0p25":2544,"cs2sGw3sD4s1p0":2545,"6sC6sA":2546,"6sC7sE":2547,"cs3sG5sBt":2548,"3sD4sF4s0p25":2549,"cs2sEt5sB5s0p25":2550,"cs2sEt6sE6s0p25":2551,"cs2sEt3sG3s0p25":2552,"cs2sEt3sEt4s1p0":2553,"cs3sA5sCw":2554,"cs2sFw4sB4s0p25":2555,"cs2sFw3sA3s0p5":2556,"cs2sFw5sA5s1q3":2557,"4sBt4s2p0":2558,"cs2sCw4sF4s0p5":2559,"cs2sCw5sE5s0p5":2560,"cs2sCw5sFw5s1q3":2561,"5sFw6s0p5":2562,"6sF5s1q3":2563,"3sGw4s0p5":2564,"3sGw3sD":2565,"cs4sA4sG":2566,"cs4sA4sD":2567,"cs4sA5sB":2568,"cs4sA5sG":2569,"cs4sA5sC6sE":2570,"cs4sA4sCw5sE":2571,"6sFw6sFw":2572,"cs4sD5sG5sB":2573,"6sEt6sC6s0p25":2574,"cs3sCw4sFw":2575,"cs4sB4sB":2576,"cs4sB5sGw":2577,"6sCw6s0p5":2578,"cs2sA4sA5s1p5":2579,"cs2sF5sF4s1p0":2580,"7sB6s1q3":2581,"cs4sEt5sD5sEt":2582,"cs4sCw4sE":2583,"cs4sCw4sE4sG":2584,"cs2sD5sD4s1p0":2585,"cs2sD5sF5s1q3":2586,"cs3sC4sF4sA4s1p0":2587,"7sGw7sB":2588,"cs3sB3sD4sE4s0p25":2589,"2sF2s0p25":2590,"cs3sE3sC4sE4s1p0":2591,"cs2sD4sD3s0p5":2592,"cs3sE6sGw6sB6s0p25":2593,"cs2sC5sEt4s0p25":2594,"cs4sE5sA5sC6sE6s0p25":2595,"cs2sC4sF3s0p5":2596,"nsA1s1p0":2597,"cs4sE5sGw5sD":2598,"cs4sG5sA5sG5sA5s0p25":2599,"cs4sD4sFw4sC":2600,"cs4sE4sGw4sD5sE5s0p25":2601,"cs6sG":2602,"cs6sF":2603,"2s4p0":2604,"3s2p75":2605,"nsC3s2p0":2606,"6s4p0":2607,"nsF2s2p0":2608,"nsD7s1q3":2609,"nsA5s3p0":2610,"nsA2s2p0":2611,"cs2sE5sGw4s0p25":2612,"cs2sE5sC6s1p0":2613,"cs2sE6sC6s0p5":2614,"cs2sE3sC4s1p5":2615,"4sE3s1p0":2616,"cs2sC3sEt":2617,"cs2sC3sFw":2618,"cs2sB4sD4s0p5":2619,"cs2sB3sF4s1p0":2620,"cs2sB6sD7s1p0":2621,"4sB3sA":2622,"nsGw3s2p0":2623,"cs2sG6sG":2624,"cs2sG5sD6s0p25":2625,"cs2sG6sB5s0p25":2626,"cs2sG2sE":2627,"cs2sG3sEt4s0p25":2628,"cs2sG3sCw4s0p5":2629,"cs2sD4sGw4s0p25":2630,"cs2sD6sG5s0p25":2631,"cs2sD4sB4s1p0":2632,"cs2sD5sC5s0p5":2633,"cs2sD5sCw5s0p25":2634,"cs2sA6sA":2635,"cs2sA4sG4s1q3":2636,"cs2sA6sGw6s0p25":2637,"cs2sA4sF5s0p5":2638,"cs2sA4sC5s1p5":2639,"cs2sA2sC3s0p25":2640,"nsFw5s2p0":2641,"cs2sF4sG4s0p5":2642,"cs2sF4sB4s1p0":2643,"cs2sF3sC3s0p25":2644,"cs2sF4sA4s0p75":2645,"5sB5s2p0":2646,"4sF3s0p25":2647,"4sF4sD":2648,"5sA4s1p5":2649,"5sA5sG5s0p25":2650,"3sC4sE4s1p0":2651,"5sD5sC":2652,"5sF6s1p0":2653,"3sB3s0p75":2654,"cs3sG6sC":2655,"cs3sG5sGw":2656,"cs2sEt4sC5s0p5":2657,"cs2sEt5sD5s1q3":2658,"cs2sBt6sB6s0p25":2659,"cs2sBt4sD5s1p5":2660,"cs2sFw5sG5s1q3":2661,"cs2sCw6sE6s0p25":2662,"5sFw5sG5s0p25":2663,"6sG6sD6s0p25":2664,"5sBt5sBt":2665,"cs4sE6sCw":2666,"cs3sEt5sG":2667,"cs3sEt3sFw":2668,"cs3sFw4sFw":2669,"cs4sG3sB3sD":2670,"6sGw5s1p0":2671,"cs4sC4sGw":2672,"cs4sC5sFw":2673,"cs3sBt3sE":2674,"cs4sA4sEt":2675,"cs4sD4sC":2676,"cs4sD5sB":2677,"6sEt6s1q3":2678,"3sBt2s0p25":2679,"cs3sCw4sGw":2680,"cs3sCw5sBt":2681,"cs3sCw5sCw":2682,"cs4sB5sD":2683,"cs4sB4sEt":2684,"cs4sF4sD":2685,"cs3sC4sE4sC5s1q3":2686,"cs2sF4sF3s0p25":2687,"cs2sG3sG2s0p25":2688,"cs4sEt3sG3sBt":2689,"cs2sB4sB5s1q3":2690,"cs4sBt3sEt":2691,"cs3sC5sE5sA5s1p0":2692,"cs2sF6sF7s0p25":2693,"cs3sF4sA4sD5s0p5":2694,"cs3sA3sC4sA4s0p25":2695,"cs3sG4sB4sG":2696,"cs2sBt4sBt3s0p5":2697,"cs3sGw4sB4sE5s0p25":2698,"cs3sA4sF5sA5s0p25":2699,"cs2sD4sF4s2p0":2700,"cs3sF3sB3sF4s1q3":2701,"cs2sB4sG5s1p0":2702,"cs2sC5sEt5s1p0":2703,"cs2sFw4sFw5s0p5":2704,"cs3sCw5sE5sG5s0p25":2705,"cs4sE5sC5sG":2706,"cs4sD5sFw5sA":2707,"cs3sE7sF7sE7s0p25":2708,"cs3sCw5sEt4sBt4s0p25":2709,"cs6sCw":2710,"rs25":2711,"nsE2s3p0":2712,"nsC5s2q3":2713,"nsB4s1p25":2714,"nsD4s1p25":2715,"nsA7s0p25":2716,"nsA4s1p75":2717,"cs2sE3sA3s0p5":2718,"cs2sE5sG4s0p5":2719,"4sE4sD":2720,"4sE5s2p0":2721,"cs2sC3sG":2722,"cs2sC4sG4s1p0":2723,"cs2sC4sCw4s0p25":2724,"cs2sC7sB6s0p25":2725,"cs2sC7sFw6s0p25":2726,"5sE5s2p0":2727,"cs2sB3sA":2728,"cs2sB4sF4s0p25":2729,"4sB3s2p0":2730,"cs2sG5sC5s0p5":2731,"cs2sG3sF3s0p25":2732,"cs2sG3sF3s0p5":2733,"cs2sD5sCw5s1q3":2734,"cs2sD6sA5s1q3":2735,"cs2sD6sG5s1q3":2736,"cs2sA4sC":2737,"cs2sA3sF":2738,"cs2sA6sC7s0p25":2739,"cs2sA5sBt5s0p25":2740,"cs2sA5sE5s1q3":2741,"cs2sA3sF4s1p0":2742,"5sC5s0p75":2743,"nsEt3s1p0":2744,"nsEt3s2p0":2745,"cs2sF4sA":2746,"cs2sF3sBt3s0p25":2747,"cs2sF5sG6s0p5":2748,"5sA6s0p25":2749,"cs3sC6sEt":2750,"5sD6s2p0":2751,"5sF4s1q3":2752,"5sF5sB":2753,"5sF6s1q3":2754,"6sE7s0p5":2755,"7s1p25":2756,"cs2sGw6sE6s0p25":2757,"cs2sGw4sF4s0p5":2758,"cs2sGw6sA6s0p25":2759,"cs3sB5sC":2760,"cs3sB1sG":2761,"3sG3s2p0":2762,"3sG3s1p5":2763,"3sD4s1p5":2764,"cs2sEt6sC6s0p25":2765,"cs2sEt4sCw4s0p25":2766,"cs2sEt4sFw4s1q3":2767,"cs2sBt5sFw5s0p25":2768,"cs2sBt5sGw5s0p25":2769,"cs2sBt3sF4s0p25":2770,"cs3sA5sG":2771,"cs3sF5sE":2772,"cs2sFw5sGw5s0p25":2773,"cs2sFw4sA4s1p0":2774,"cs2sFw5sA5s0p5":2775,"cs2sFw4sEt4s0p5":2776,"5sGw5s2p0":2777,"4sFw4s1p5":2778,"cs2sCw5sEt5s0p25":2779,"cs2sCw4sCw5s1p0":2780,"5sFw5s2p0":2781,"6sD6sB5s0p25":2782,"6sD7s0p5":2783,"cs2sE5sE6s2p0":2784,"cs3sFw3sCw":2785,"cs4sG5sD":2786,"cs4sG3sC4sE":2787,"cs4sC5sF":2788,"cs4sC5sEt":2789,"cs4sC6sF":2790,"cs4sA5sA":2791,"cs4sA6sE":2792,"cs4sA6sF":2793,"cs4sD4sB":2794,"cs4sD6sD":2795,"cs3sCw4sG":2796,"cs4sF3sA":2797,"cs2sC5sC4s1q3":2798,"cs4sGw4sB4sE":2799,"cs2sG3sG4s2p0":2800,"cs4sEt4sC":2801,"cs4sEt5sG":2802,"cs2sB3sB2s0p25":2803,"cs4sFw4sA":2804,"cs4sFw4sEt":2805,"cs2sD5sD6s1p0":2806,"cs2sD6sD5s1p0":2807,"2sC3sE":2808,"cs3sE4sG4sA4s0p25":2809,"cs3sC5sE5sC6s1p0":2810,"cs3sA4sC5sF5s0p25":2811,"cs3sA4sC5sA5s1p0":2812,"cs3sC4sF3sGw3s0p5":2813,"cs2sC4sE3s0p25":2814,"cs2sC4sC5s1p5":2815,"cs2sB5sB4s1q3":2816,"cs3sG4sC5sG5s0p25":2817,"cs3sF4sC4sA3s0p5":2818,"cs3sG3sB3sD4s0p5":2819,"cs3sF3sB3sF4s0p25":2820,"cs3sE5sA5sC6s0p25":2821,"cs2sFw4sFw3s0p25":2822,"cs3sB2sD3sG3s1p0":2823,"cs4sB4sD5sG":2824,"cs3sG3sF4sG4s0p25":2825,"cs2sG4sBt4s1q3":2826,"cs4sB4sE5sGw":2827,"cs4sD5sE5sD5sE5s0p25":2828,"cs1":2829,"cs5sFw":2830,"5s7q6":2831,"nsG3s3p0":2832,"nsG4s1p75":2833,"nsC6s1p25":2834,"cs2sE4sB3s0p25":2835,"cs2sE5sB4s0p5":2836,"cs2sE3sC3s0p25":2837,"cs2sE6sG5s1q3":2838,"cs2sE2sD2s0p25":2839,"cs2sC6sGw5s0p25":2840,"cs2sC5sA4s1p0":2841,"5sE4s1p0":2842,"cs2sB5sE5s0p25":2843,"cs2sB4sE4s0p25":2844,"cs2sB5sG6s0p5":2845,"nsGw6s1p0":2846,"nsGw2s0p5":2847,"cs2sG3sF3s1p0":2848,"cs2sD5sGw4s0p25":2849,"cs2sD4sGw4s1p0":2850,"cs2sA5sA5s0p25":2851,"cs2sA5sCw5s0p25":2852,"cs2sA4sCw5s0p5":2853,"cs2sA6sA5s0p5":2854,"cs2sA2sC3s0p5":2855,"cs2sF4sEt4s0p25":2856,"cs2sF5sBt5s0p25":2857,"cs2sF6sEt6s0p25":2858,"cs2sF5sCw5s0p25":2859,"cs2sF2sF":2860,"cs2sF4sD4s1q3":2861,"cs2sF3sGw3s1p0":2862,"cs2sF2sA2s0p25":2863,"4sA4sB4s0p25":2864,"4sD4s0p75":2865,"4sD4s2p0":2866,"nsBt3s2p0":2867,"4sF4sG4s0p25":2868,"cs3sE4sFw":2869,"cs3sE7sE":2870,"cs3sC4sB":2871,"cs2sGw4sBt4s0p25":2872,"cs2sGw6sB5s0p25":2873,"3sE4s3p0":2874,"cs3sB3sB":2875,"cs3sB6sGw":2876,"cs3sG5sF":2877,"cs2sEt5sD5s0p25":2878,"cs2sBt5sG5s0p5":2879,"cs2sBt3sFw4s0p5":2880,"cs2sFw4sE4s0p25":2881,"cs2sFw3sD4s0p25":2882,"cs2sFw6sEt6s0p25":2883,"cs2sFw4sA4s1q3":2884,"cs2sFw5sB4s1q3":2885,"4sFw4s0p75":2886,"cs2sCw3sCw":2887,"cs2sCw3sF3s0p25":2888,"6sD6sB":2889,"5sBt5s0p75":2890,"5sCw6s1q3":2891,"cs4sE5sB":2892,"cs4sE6sB5sGw":2893,"cs4sG4sB4sD":2894,"cs3sBt5sD":2895,"cs4sA3sA":2896,"cs4sD7sB":2897,"cs2sE4sE5s2p0":2898,"cs3sCw4sBt":2899,"cs4sB3sE":2900,"cs4sB6sB":2901,"cs2sG4sG5s1q3":2902,"cs2sG4sG3s1p0":2903,"cs2sG4sG5s2p0":2904,"cs4sF5sA":2905,"cs3sC4sE4sA4s0p5":2906,"cs2sC6sC7s0p5":2907,"cs4sGw4sB4sD":2908,"cs3sG3sC4sG4s0p5":2909,"cs3sE4sC4sG3s0p25":2910,"cs2sB3sB4s1q3":2911,"cs4sCw4sBt":2912,"cs3sD4sF4sD5s0p25":2913,"2sG2s0p25":2914,"cs3sA3sC4sF4s0p5":2915,"cs3sG4sB4sG5s0p25":2916,"cs3sA4sE5sA5s0p5":2917,"cs2sE4sG4s1p5":2918,"cs3sE4sGw4sB4s0p5":2919,"cs3sA5sC6sE6s0p25":2920,"cs4sE4sG4sC5sE":2921,"cs3sC6sE5sC5s0p25":2922,"cs3sE6sGw6sB6s0p5":2923,"cs4sC5sE5sG":2924,"cs3sF6sF5sA5s0p25":2925,"cs3sD6sB5sD5s0p25":2926,"cs4sA4sC5sF":2927,"cs3sE3sA3sC4s1p0":2928,"cs4sD4sFw4sC5sD5s0p25":2929,"cs3sB1sG2sB2s0p25":2930,"Cw":2931,"q24":2932,"2s1q6":2933,"3s5":2934,"rs4p5":2935,"nsF4s1p25":2936,"nsD6s1p5":2937,"nsA6s0p75":2938,"cs2sE5sEt5s0p25":2939,"cs2sE6sB5s1q3":2940,"cs2sC3sA":2941,"cs2sC6sEt":2942,"cs2sC3sF3s0p5":2943,"cs2sC5sG4s1p0":2944,"cs2sC4sG3s1p0":2945,"cs2sC6sA6s1p0":2946,"cs2sB3sE4s0p5":2947,"cs2sB5sGw5s0p5":2948,"cs2sB5sC6s1q3":2949,"cs2sG3sF4s0p5":2950,"cs2sG5sB4s0p5":2951,"cs2sG3sEt4s0p5":2952,"cs2sG3sC4s1p5":2953,"cs2sG5sE6s1q3":2954,"cs2sG6sB6s1p0":2955,"cs2sD3sF":2956,"cs2sD4sGw4s0p5":2957,"cs2sD3sG3s1p0":2958,"cs2sD4sA3s1q3":2959,"cs2sA5sE6s0p25":2960,"cs2sA3sGw3s0p25":2961,"cs2sA4sFw5s0p25":2962,"cs2sA4sCw5s1p0":2963,"nsEt5s2p5":2964,"nsFw4s3p0":2965,"nsFw2s0p5":2966,"cs2sF4sF4s0p25":2967,"cs2sF4sD5s1p0":2968,"cs2sF6sB6s0p25":2969,"cs2sF5sB5s0p5":2970,"cs2sF4sA4s1q3":2971,"cs2sF7sE7s0p25":2972,"cs2sF5sD5s1p0":2973,"cs2sF7sF6s0p25":2974,"4sA4sFw":2975,"nsBt4s3p0":2976,"5sG5sE5s0p25":2977,"nsCw7s0p5":2978,"5sA4sA":2979,"3sC4s3p0":2980,"3sC4s4p0":2981,"cs3sE4sC5sE5s1p0":2982,"cs3sC3sD":2983,"cs3sC4sBt":2984,"5sD5sB4s0p25":2985,"4sGw5s1p0":2986,"cs2sGw5sD5s0p25":2987,"cs2sGw4sE4s1q3":2988,"cs2sGw4sE5s0p5":2989,"3sB3s2p0":2990,"3sD3s1q3":2991,"cs2sEt4sE4s0p25":2992,"cs2sEt4sF4s0p25":2993,"cs2sEt6sD6s0p25":2994,"cs2sBt4sB4s0p25":2995,"cs2sBt3sCw4s0p5":2996,"cs3sA3sEt":2997,"6sB5sC6s0p25":2998,"4sCw5sE5s0p25":2999,"4sCw5s1p5":3000,"4sCw5s2p0":3001,"6sA6sC7s0p25":3002,"cs3sD4sG4sB":3003,"6sF6sD6s0p25":3004,"rs5p75":3005,"cs4sE4sBt":3006,"cs2sE5sE6s1p5":3007,"cs3sFw4sG":3008,"cs3sFw3sD":3009,"3sGw3s1q3":3010,"cs4sG4sC":3011,"cs4sG6sE":3012,"cs4sC4sF":3013,"cs4sA4sCw":3014,"cs4sA5sCw":3015,"cs4sA3sC4sE":3016,"cs4sD5sB4sG":3017,"cs3sCw5sF":3018,"cs3sCw5sFw":3019,"3sFw3s1p0":3020,"cs4sF6sGw":3021,"cs3sC4sE4sC5s0p5":3022,"cs2sC6sC6s0p25":3023,"7sB6sGw":3024,"cs4sGw4sB":3025,"cs3sG3sC4sG4s0p25":3026,"cs4sCw6sA":3027,"cs4sFw4sFw":3028,"cs4sFw6sEt":3029,"cs2sD5sD6s1q3":3030,"cs3sB3sD4sGw4s0p25":3031,"cs3sC4sG4sC5s0p25":3032,"cs3sGw4sB4sE5s1q3":3033,"cs3sF4sB4sD5s0p25":3034,"cs2sE4sG3s0p5":3035,"cs2sD4sF4s0p75":3036,"cs2sD4sD5s0p75":3037,"cs3sF3sB3sD4s0p25":3038,"cs4sE4sG4sC5sE5s0p25":3039,"cs3sD5sB5sD6s0p25":3040,"cs2sCw6sCw7s0p25":3041,"cs3sE6sGw5sE5s0p25":3042,"4sD5sF5s1p5":3043,"cs8sD":3044,"cs2sB3sD4s0p75":3045,"cs3sA4sB4sA4s0p25":3046,"cs3sGw3sB3sD4s0p25":3047,"cs3sE6sC6sG5s0p25":3048,"cs3sB2sD3sG3s0p5":3049,"cs3sCw4sE4sG4s1p0":3050,"cs3sGw5sE6sE5s0p25":3051,"cs3sG4sF4sB3s0p25":3052,"nsA1s2p0":3053,"cs2sB2sB3s1p0":3054,"cs3sG6sG5sE6s0p25":3055,"cs4sE5sD5sCw5sD5s0p25":3056,"cs4sB5sEt6sA6sB6s1q3":3057,"rs25q12":3058,"cs6sEt":3059,"2s2p5":3060,"rs4":3061,"nsE5s1p25":3062,"nsE7s0p75":3063,"nsF7s0p5":3064,"nsF5s1p75":3065,"nsB1s0p5":3066,"nsD3s1p5":3067,"nsD4s2p5":3068,"nsA3s2p5":3069,"cs2sE3sB3s0p25":3070,"cs2sE5sF6s0p25":3071,"cs2sE3sC4s0p75":3072,"4sE4s3p0":3073,"cs2sC6sF6s0p25":3074,"cs2sC4sC5s1q3":3075,"cs2sC3sGw3s0p25":3076,"cs2sC4sFw4s0p5":3077,"cs2sC5sG4s0p5":3078,"cs2sC3sE3s1p0":3079,"cs2sB5sFw5s0p25":3080,"cs2sB3sE4s1p0":3081,"cs2sB6sB5s1q3":3082,"cs2sB4sEt5s0p5":3083,"4sB4sD5s0p25":3084,"cs2sG6sC6s0p25":3085,"cs2sG5sB5s0p5":3086,"cs2sG4sE5s1p0":3087,"cs2sG4sEt4s0p5":3088,"cs2sG4sBt4s1p0":3089,"cs2sG3sE3s0p5":3090,"cs2sG5sD6s1q3":3091,"cs2sG4sE4s2p0":3092,"cs2sD5sB":3093,"cs2sD4sBt4s0p25":3094,"cs2sD3sD4s1p0":3095,"cs2sD5sB4s1q3":3096,"cs2sD6sB5s1q3":3097,"cs2sA6sE6s0p25":3098,"cs2sA3sE3s0p25":3099,"cs2sA3sF3s0p25":3100,"cs2sA5sE5s0p5":3101,"cs2sA5sC6s1q3":3102,"cs2sA3sB3s1q3":3103,"cs2sA3sFw3s0p5":3104,"5sC5s1p5":3105,"5sC5s2p0":3106,"nsEt4s3p0":3107,"nsEt6s0p75":3108,"nsFw3s0p75":3109,"nsFw3s1p5":3110,"cs2sF4sC4s0p25":3111,"cs2sF5sC5s1q3":3112,"cs2sF4sBt4s0p5":3113,"4sF3s0p5":3114,"5sG4s0p75":3115,"5sG5sA5s0p25":3116,"nsCw3s1p0":3117,"nsCw6s2p0":3118,"nsCw5s3p0":3119,"5sA5sE":3120,"3sC4sC":3121,"cs3sC6sD":3122,"5sD5sE":3123,"5sF5s0p75":3124,"5sF5s2p0":3125,"6sE5s1q3":3126,"cs2sGw5sB4s0p25":3127,"cs2sGw3sC4s1p0":3128,"cs2sGw3sE4s0p25":3129,"cs2sGw6sB6s0p25":3130,"cs2sGw3sB3s0p5":3131,"cs2sEt4sC5s0p25":3132,"cs2sEt5sG5s0p5":3133,"cs2sEt3sEt4s0p25":3134,"cs2sEt2sEt":3135,"cs2sBt4sF4s0p25":3136,"cs3sA6sFw":3137,"cs3sA4sC5sE":3138,"cs2sFw4sBt4s0p25":3139,"cs2sFw5sBt5s0p25":3140,"5sGw4s0p75":3141,"4sCw5sF":3142,"cs2sCw4sEt4s0p25":3143,"5sFw5s0p75":3144,"5sFw5s1p5":3145,"6sG5sE5s0p25":3146,"5sBt4sE":3147,"cs3sGw6sB":3148,"cs3sGw3sF":3149,"cs4sE7sCw":3150,"cs3sEt5sF":3151,"cs3sEt3sGw":3152,"cs4sG4sEt":3153,"cs4sC3sF":3154,"cs4sA6sA":3155,"6sFw6s1p0":3156,"cs4sD4sG":3157,"cs4sD3sFw":3158,"cs4sB4sD5sF":3159,"6sCw7sCw":3160,"7sE7sCw":3161,"6sBt5s1q3":3162,"6sBt6sD":3163,"cs4sF5sG5sB":3164,"cs4sF5sB5sD":3165,"cs2sE6sE5s1q3":3166,"cs2sA4sA5s0p75":3167,"cs2sC6sC7s2p0":3168,"cs4sEt4sFw":3169,"cs4sBt4sE":3170,"cs4sBt5sBt":3171,"cs2sGw4sGw3s0p25":3172,"2sE3s0p25":3173,"cs3sG4sE4sE5s0p25":3174,"2sG3s0p25":3175,"2sB2s0p5":3176,"cs3sA3sC4sE4s0p5":3177,"cs2sC4sE3s1q3":3178,"cs2sC6sE5s1q3":3179,"cs2sC6sE6s2p0":3180,"7sG7s0p25":3181,"7sGw7s0p25":3182,"cs3sB3sD4sG4s0p25":3183,"cs3sG4sB4sD5s1p0":3184,"cs3sE3sG3sC4s1p0":3185,"cs3sD4sB4sD5s1p0":3186,"cs3sA4sF5sA5s0p5":3187,"cs3sD5sF5sB5s1p0":3188,"cs2sCw5sCw6s1p0":3189,"cs3sG4sD5sG5s0p25":3190,"cs8sB":3191,"cs2sFw3sFw2s0p25":3192,"cs3sGw3sC4sGw4s0p25":3193,"cs4sE5sA5sC6sE":3194,"cs2sC4sF3s1p0":3195,"cs3sD6sF5sF6s0p25":3196,"cs4sB4sG4sD":3197,"cs2sB2sB3s0p25":3198,"cs3sA5sE5sC5s1p0":3199,"cs4sC6sG5sE":3200,"2sCw3s0p25":3201,"4s5q3":3202,"cs2sEt3sEt4s1q3":3203,"cs4sF3sA3sD4sF4s0p25":3204,"0q3":3205,"9q6":3206,"cs5sEt":3207,"cs6sFw6sFw":3208,"4s1":3209,"3s4q3":3210,"nsG6s0p75":3211,"nsE4s1q12":3212,"nsE6s3p0":3213,"nsE6s1p25":3214,"nsE2s2p0":3215,"nsC4s1p75":3216,"nsC6s1p75":3217,"nsB5s3p0":3218,"nsB3s2p5":3219,"nsD7s1p0":3220,"nsD5s2p5":3221,"nsA3s3p0":3222,"cs2sE3sA":3223,"cs2sE6sEt6s0p25":3224,"cs2sE5sGw5s1p0":3225,"cs2sE4sCw4s0p5":3226,"4sE5sG5s0p25":3227,"4sE5s2q3":3228,"4sE5sC5s0p5":3229,"cs2sC4sG":3230,"cs2sC5sA":3231,"cs2sC6sA6s0p25":3232,"cs2sC3sA3s0p25":3233,"cs2sC5sF5s0p5":3234,"cs2sC3sFw3s0p25":3235,"cs2sC7sE6s0p25":3236,"cs2sC6sG5s1q3":3237,"cs2sC3sEt3s0p25":3238,"cs2sC7sF6s0p25":3239,"cs2sC6sCw6s1q3":3240,"4sC5s4q3":3241,"cs2sB5sD":3242,"cs2sB2sA":3243,"cs2sB4sFw5s0p25":3244,"cs2sB3sC4s1q3":3245,"cs2sB4sF5s1p0":3246,"4sB3s0p75":3247,"cs2sG5sGw5s0p25":3248,"cs2sG4sD5s1p0":3249,"cs2sG4sD4s0p5":3250,"cs2sG5sE5s1p0":3251,"cs2sG5sB5s1p0":3252,"cs2sG3sD3s0p25":3253,"cs2sG2sC3s0p25":3254,"cs2sG1sG":3255,"cs2sD6sB":3256,"cs2sD4sA3s0p25":3257,"cs2sD5sA4s0p5":3258,"cs2sD4sG3s0p25":3259,"cs2sD4sFw4s0p5":3260,"cs2sD4sBt4s1p0":3261,"cs2sA5sF5s1p0":3262,"5sC4s0p5":3263,"cs2sF5sA":3264,"cs2sF5sF5s0p25":3265,"cs2sF5sB4s0p25":3266,"cs2sF5sA4s0p5":3267,"cs2sF3sB3s1q3":3268,"cs2sF4sB4s2p0":3269,"5sG5sF":3270,"5sA5sGw":3271,"5sA5sC6s0p25":3272,"cs3sC6sB":3273,"cs3sC3sGw":3274,"5sD5s1p5":3275,"5sD5sG5s0p25":3276,"5sF6s0p75":3277,"cs2sGw3sD4s0p5":3278,"cs2sGw5sE6s0p25":3279,"cs2sGw3sF4s0p5":3280,"cs2sGw3sB3s1p0":3281,"cs2sGw3sF3s1p0":3282,"6sC7sA":3283,"cs3sG5sEt":3284,"cs3sG6sBt":3285,"cs2sBt5sC6s0p25":3286,"cs2sBt3sEt":3287,"cs2sBt4sG4s0p5":3288,"cs2sBt3sB3s0p25":3289,"cs3sA2sE":3290,"cs3sA2sF":3291,"cs3sA6sC6sA5s0p25":3292,"cs3sF6sE":3293,"cs3sF6sB":3294,"cs3sF3sF":3295,"cs3sF6sGw":3296,"cs3sF3sBt":3297,"cs3sF7sE":3298,"cs2sFw4sD4s0p25":3299,"cs2sFw4sGw4s0p25":3300,"cs2sFw4sD5s0p5":3301,"cs2sFw5sF5s1q3":3302,"cs2sFw5sD6s0p5":3303,"5sGw6s0p5":3304,"cs2sCw4sGw4s0p25":3305,"cs2sCw6sD6s0p25":3306,"cs3sD6sFw":3307,"cs3sGw3sEt":3308,"cs4sE6sG":3309,"cs4sE4sG4sB":3310,"cs4sE3sB3sD":3311,"cs3sFw5sE":3312,"cs4sG5sC":3313,"cs4sG3sE":3314,"cs4sG6sFw":3315,"cs4sC5sB":3316,"cs4sC6sGw":3317,"cs3sBt6sF":3318,"cs4sA6sFw":3319,"6sFw5s1q3":3320,"cs4sD5sGw":3321,"cs4sD5sBt4sG":3322,"cs2sE4sE3s1p0":3323,"cs3sCw3sEt":3324,"6sCw6sE":3325,"6sCw6sA5s0p25":3326,"7sE7s1q3":3327,"cs4sF4sF":3328,"cs4sF4sG4sB":3329,"cs2sA4sA5s1q3":3330,"cs3sC4sE3sG3s1p0":3331,"cs2sG5sG4s1q3":3332,"cs2sG5sG6s2p0":3333,"cs2sF4sF5s1p5":3334,"cs2sC5sC6s2p0":3335,"cs4sGw5sF":3336,"cs4sGw6sF":3337,"cs2sG3sG2s0p5":3338,"cs4sEt4sGw":3339,"cs4sEt4sEt":3340,"cs4sBt5sE":3341,"cs2sA5sA6s2p0":3342,"cs2sB3sB4s0p75":3343,"cs4sCw4sCw":3344,"cs4sCw7sA":3345,"cs3sE4sG4sE5s0p5":3346,"cs3sE4sG4sE5s1p0":3347,"cs3sC5sE5sC6s0p25":3348,"cs3sC5sE4sG4s0p5":3349,"cs2sD5sF5s0p75":3350,"7sG6s1q3":3351,"cs2sFw5sFw6s0p5":3352,"cs3sG4sB4sEt5s1p0":3353,"cs3sC5sA5sC6s0p5":3354,"cs3sG3sE4sG4s1p0":3355,"cs3sC5sG4sE4s0p25":3356,"cs3sB4sD5sG5s0p25":3357,"cs3sGw4sB4sF5s0p25":3358,"cs3sE5sC5sG4s0p25":3359,"cs3sD5sF5sD6s0p25":3360,"cs3sG3sB3sF4s0p5":3361,"cs3sC4sC5sA4s0p5":3362,"cs3sB4sE5sGw5s0p5":3363,"cs3sE5sB5sE6s1p0":3364,"cs3sGw4sC4sGw3s0p25":3365,"cs3sG5sB5sG6s0p25":3366,"cs8sE":3367,"cs3sE6sE5sG5s0p25":3368,"cs3sF3sC4sF4s0p25":3369,"cs2sB4sG5s0p75":3370,"cs2sFw3sFw4s1p0":3371,"cs3sB2sD3sF3s1p0":3372,"cs2sF3sA3s1q3":3373,"cs3sA6sA5sC6s0p25":3374,"cs3sEt6sA6sB6s0p25":3375,"cs3sEt6sA6sB6s0p5":3376,"cs4sE3sG3sC4sE4s0p25":3377,"cs3sEt4sC4sFw4s0p25":3378,"cs4sC6sG5sE5sC":3379,"cs3sA4sG4sFw4s0p25":3380,"cs3sF6sD6sF5s0p5":3381,"cs3sD3sG3sB3s0p5":3382,"4s5p0":3383,"cs3sB4sC5sB4s0p25":3384,"cs2sA1sA2s1p0":3385,"5s5q6":3386,"cs4sG5sB5sG5sC6s0p25":3387,"cs2sA2sFw3s0p25":3388,"cs2sC7sA6s0p5":3389,"cs2sCw7sCw6s0p25":3390,"cs3sFw3sB3sEt4s0p25":3391,"cs4sF4sBt4sD":3392,"cs4sA5sC6sE6sA6s0p5":3393,"cs4sE5sGw5sD6sE6s0p25":3394,"cs2sG2sE2s0p5":3395,"cs4sCw4sBt4sG4sE4s0p25":3396,"cs4sB4sG4sD4sB3s1p0":3397,"cs4sE3sB3sD4sE4s0p25":3398,"cs4sG6sFw6sEt6sC6s0p25":3399,"8s0p75":3400,"cs6sC":3401,"1q24":3402,"nsE4s2p5":3403,"nsE2s0p75":3404,"nsC3s":3405,"nsF2s0p5":3406,"nsF6s1p5":3407,"nsF4s1p75":3408,"nsB6s0p75":3409,"cs2sE4sCw5s0p25":3410,"cs2sE5sCw6s0p25":3411,"cs2sE5sG5s0p75":3412,"cs2sE5sGw4s1q3":3413,"cs2sC5sCw5s0p25":3414,"cs2sC3sC4s2p0":3415,"5sE5sF5s0p25":3416,"cs2sB5sBt5s0p25":3417,"cs2sB3sCw4s0p25":3418,"cs2sB6sB5s0p5":3419,"cs2sB2sD3s0p5":3420,"cs2sB3sE4s0p75":3421,"cs2sB5sGw6s0p25":3422,"4sG5s0p75":3423,"nsGw4s1p25":3424,"cs2sG4sF4s0p5":3425,"cs2sG5sD5s1q3":3426,"cs2sG6sBt5s0p25":3427,"cs2sG3sE4s1p0":3428,"cs2sG5sC5s1q3":3429,"cs2sG5sD5s0p5":3430,"cs2sG4sB3s1p0":3431,"cs2sD4sA4s0p5":3432,"cs2sD5sG5s0p5":3433,"cs2sD6sA5s0p5":3434,"cs2sD3sC3s0p25":3435,"cs2sD5sG4s0p5":3436,"cs2sD5sA4s1p0":3437,"cs2sA3sB3s1p0":3438,"cs2sA5sF6s0p25":3439,"cs2sA3sBt3s0p25":3440,"cs2sA6sE6s1q3":3441,"cs2sA6sBt6s0p25":3442,"cs2sA3sD3s0p25":3443,"cs2sA5sCw6s0p5":3444,"cs2sA6sA5s1q3":3445,"cs2sA5sC6s2p0":3446,"5sC5sG4s0p25":3447,"nsEt2s1q3":3448,"cs2sF6sC7s0p25":3449,"cs2sF4sC4s1p0":3450,"cs2sF5sGw5s1p0":3451,"cs2sF6sD6s0p5":3452,"4sA4sB":3453,"4sA4s3p0":3454,"4sA4s1p25":3455,"4sD4sF":3456,"5sB5sE":3457,"4sF5s2p0":3458,"5sG4s2p0":3459,"5sG5sBt5s0p25":3460,"nsCw3s0p5":3461,"nsCw4s3p0":3462,"cs3sE6sBt":3463,"cs3sC4sC5sE":3464,"cs2sGw4sD4s0p25":3465,"cs2sGw3sG3s0p25":3466,"cs2sGw5sEt5s0p25":3467,"cs2sGw4sF5s0p25":3468,"cs2sGw5sCw6s0p25":3469,"cs3sB6sD":3470,"6sC7s1q3":3471,"cs3sG3sFw":3472,"cs3sG2sC":3473,"cs2sEt5sC6s0p25":3474,"cs2sEt4sBt4s0p25":3475,"cs2sEt4sG4s1p0":3476,"cs2sEt5sGw5s0p25":3477,"cs2sEt6sC7s0p25":3478,"cs2sEt6sCw6s0p25":3479,"cs2sEt7sEt6s0p25":3480,"cs3sA2sD":3481,"cs3sA5sE5sC5s0p25":3482,"cs3sF6sC":3483,"cs3sF4sCw":3484,"cs2sFw5sA4s0p25":3485,"cs2sFw3sB3s0p25":3486,"cs2sFw4sC5s1q3":3487,"4sCw4s1p5":3488,"cs2sCw4sA4s0p5":3489,"cs2sCw3sE3s0p25":3490,"cs2sCw4sA3s0p25":3491,"cs3sD5sFw":3492,"cs3sD7sB":3493,"5sFw5sEt":3494,"3sF3s1q3":3495,"6sD6sD":3496,"6sG5s1p5":3497,"5sBt4sD":3498,"5sCw6sE6s0p25":3499,"5sCw6s2p0":3500,"cs4sE5sFw":3501,"cs4sE3sA":3502,"cs4sE6sGw":3503,"cs3sEt5sCw":3504,"cs3sFw5sB":3505,"cs3sFw5sD":3506,"cs3sFw4sBt":3507,"cs3sFw5sCw":3508,"cs3sFw6sEt":3509,"3sGw3s2p0":3510,"cs4sG3sB":3511,"cs4sC8s":3512,"cs4sC3sE3sG":3513,"cs3sBt4sFw":3514,"cs3sBt6sD":3515,"cs3sBt3sBt":3516,"cs4sA4sF":3517,"cs4sA5sC6sF":3518,"6sEt6s0p5":3519,"cs3sCw7sCw":3520,"3sEt3s1q3":3521,"cs4sB4sFw":3522,"cs2sG4sG5s1p5":3523,"3sCw3s1q3":3524,"cs4sF6sC":3525,"7sC7s1q3":3526,"cs2sG5sG4s2p0":3527,"cs2sC6sC5s1q3":3528,"2sD3s2p0":3529,"cs4sEt5sA":3530,"cs4sEt6sEt":3531,"cs4sEt5sBt4sG":3532,"cs4sBt5sD":3533,"cs4sBt3sCw4sE":3534,"cs4sFw4sB":3535,"cs4sFw4sG":3536,"cs4sFw7sEt":3537,"cs2sD5sD4s1q3":3538,"cs3sC5sE5sG5s1p0":3539,"1s2p0":3540,"cs2sA3sA4s1q3":3541,"cs3sD4sF4sB4s0p5":3542,"cs3sC4sF4sC5s1p0":3543,"2sB2s1p0":3544,"cs3sF4sA4sF5s0p25":3545,"7sGw6s1q3":3546,"cs3sE5sG5sE6s0p25":3547,"cs2sC4sC5s0p75":3548,"cs3sF4sGw4sF5s1p0":3549,"cs3sE4sA4sE5s0p25":3550,"cs2sB5sB6s0p5":3551,"cs3sA4sE4sC4s0p5":3552,"cs2sBt4sBt3s0p25":3553,"cs3sE5sC6sC":3554,"cs2sB3sG4s0p75":3555,"cs3sD5sF5sBt5s0p25":3556,"cs3sG5sE5sC5s0p25":3557,"cs2sBt5sBt6s0p5":3558,"4sG4sB4sD":3559,"cs4sE5sG5sC6sE6s0p25":3560,"cs8sG":3561,"cs8sCw":3562,"cs4sG4sBt4sCw":3563,"cs3sB3sE4sG4s0p25":3564,"cs4sE4sE5sA":3565,"cs3sCw5sE5sA5s0p25":3566,"cs3sGw3sB3sE4s0p25":3567,"cs2sA2sA3s0p5":3568,"cs5sC6sEt6sFw":3569,"cs3sEt4sGw4sC5s0p25":3570,"cs3sEt6sA5sFw5s0p25":3571,"cs3sC4sGw4sC5s0p25":3572,"cs3sA4sG4sA4s0p25":3573,"cs2sD5sBt4s1p0":3574,"cs2sE3sG3s2p0":3575,"5sC6sC5sE5s0p25":3576,"cs3sCw6sE5sE6s0p25":3577,"cs3sC3sF3sA3s0p25":3578,"cs3sF4sE4sF4s0p25":3579,"cs4sA5sE6sC":3580,"cs6sB7sGw7sB":3581,"cs2sE7sE6s0p5":3582,"cs4sC3sEt3sGw":3583,"7sC8sC":3584,"cs4sBt3sEt4sG":3585,"cs5sC6sEt6sFw6sA6sC7s0p25":3586,"3p25":3587,"cs5sGw":3588,"5s1":3589,"5s4p5":3590,"nsG6s2p0":3591,"nsG4s1q12":3592,"nsG5s1q12":3593,"nsG3s2p5":3594,"nsE3s3p0":3595,"nsE1s0p5":3596,"nsC4s2q3":3597,"6s5":3598,"nsF6s0p75":3599,"nsF2s1p0":3600,"nsF4s2q3":3601,"nsF5s1p25":3602,"nsD4s2q3":3603,"nsD4s1p75":3604,"nsA6s2p0":3605,"cs2sE6sE6s0p25":3606,"cs2sE2sC":3607,"cs2sE4sGw4s0p5":3608,"cs2sE5sA5s1p0":3609,"cs2sE3sBt3s0p5":3610,"cs2sE3sCw4s0p5":3611,"cs2sE7sD7s0p25":3612,"cs2sE6sA5s1q3":3613,"cs2sE3sC4s2p0":3614,"cs2sE7sA6s1q3":3615,"cs2sE7sB6s1q3":3616,"4sE4sC4s0p25":3617,"cs2sC6sG6s0p25":3618,"cs2sC4sA4s1q3":3619,"cs2sC6sCw6s0p25":3620,"cs2sC3sA3s1p0":3621,"cs2sC5sFw5s1p0":3622,"cs2sC4sF4s1q3":3623,"cs2sC4sFw4s1p0":3624,"cs2sC4sG3s1q3":3625,"4sC5s3p0":3626,"4sC5s2p5":3627,"5sE4s0p5":3628,"cs2sB4sE4s0p5":3629,"cs2sB4sF4s0p5":3630,"cs2sB3sG3s0p5":3631,"cs2sB4sE4s1q3":3632,"cs2sB6sGw6s0p25":3633,"cs2sB5sF5s1q3":3634,"cs2sB3sEt4s0p25":3635,"cs2sB5sA5s1q3":3636,"cs2sB5sG6s0p25":3637,"cs2sB6sD6s0p5":3638,"cs2sB4sE5s1q3":3639,"cs2sB3sE3s1q3":3640,"cs2sB5sD6s0p75":3641,"cs2sB4sF5s1q3":3642,"4sB3sC4s0p25":3643,"4sB3s1p5":3644,"4sB4sD5s0p5":3645,"4sB4s2q3":3646,"4sG5s1q3":3647,"nsGw6s0p75":3648,"nsGw2s0p75":3649,"cs2sG5sG5s0p25":3650,"cs2sG3sBt":3651,"cs2sG6sD6s0p25":3652,"cs2sG6sC7s0p25":3653,"cs2sG4sE4s1q3":3654,"cs2sG4sGw4s0p5":3655,"cs2sG5sCw6s0p25":3656,"cs2sG3sA3s0p5":3657,"cs2sG4sCw5s0p5":3658,"cs2sG4sC4s1q3":3659,"cs2sG6sG5s1p0":3660,"cs2sG2sC3s0p5":3661,"cs2sG3sD4s1q3":3662,"cs2sD3sB":3663,"cs2sD4sE4s1p0":3664,"cs2sD3sF3s1p0":3665,"cs2sD2sD3s1p0":3666,"cs2sA3sB":3667,"cs2sA3sCw":3668,"cs2sA4sE4s0p5":3669,"cs2sA3sG3s0p25":3670,"cs2sA6sC6s0p25":3671,"cs2sA4sF4s1q3":3672,"cs2sA4sF5s1p0":3673,"cs2sA6sC7s0p5":3674,"cs2sF4sB":3675,"cs2sF4sC5s0p5":3676,"cs2sF5sFw5s0p25":3677,"cs2sF4sCw4s0p25":3678,"cs2sF5sG5s1q3":3679,"cs2sF3sA3s1p0":3680,"cs2sF4sB3s1p0":3681,"cs2sF6sA6s1p0":3682,"4sA3s0p75":3683,"4sD4s1p5":3684,"5sB4sA":3685,"5sB4s2p0":3686,"5sB5s1p5":3687,"nsBt4s1p25":3688,"4sF4sG":3689,"4sF4sA":3690,"4sF4sD4s0p25":3691,"4sF4s1p25":3692,"5sG6s1q3":3693,"5sG5sB5s0p25":3694,"nsCw3s0p75":3695,"nsCw4s2q3":3696,"5sA4sA5s0p25":3697,"3sC3s1p0":3698,"3sC4sD4s0p25":3699,"3sC3s2p0":3700,"cs3sE3sGw":3701,"cs3sE2sG":3702,"cs3sC3sA":3703,"cs3sC6sFw":3704,"cs3sC7sE":3705,"5sD5s2p0":3706,"6sE6sD6s0p25":3707,"7s1q12":3708,"4sGw3s1q3":3709,"4sGw4s1p75":3710,"cs2sGw4sEt4s0p25":3711,"cs2sGw3sE4s0p5":3712,"cs2sGw5sE6s0p5":3713,"cs2sGw2sGw":3714,"cs3sB5sA":3715,"cs3sB6sA":3716,"cs3sB2sG":3717,"cs3sG5sCw":3718,"3sG2s0p25":3719,"3sG2s1p0":3720,"cs2sEt4sD4s0p25":3721,"cs2sEt5sG5s1q3":3722,"cs2sEt5sFw5s1q3":3723,"cs2sEt3sFw3s1q3":3724,"cs2sBt3sC4s0p5":3725,"cs2sBt4sD5s1p0":3726,"cs2sBt6sG6s0p25":3727,"cs2sBt6sA6s0p25":3728,"cs2sBt5sE6s0p25":3729,"cs2sBt5sG5s1q3":3730,"cs2sBt3sG4s1p0":3731,"cs3sA6sC":3732,"cs3sA3sG":3733,"cs3sA5sEt":3734,"cs3sA5sBt":3735,"4sEt4s1p5":3736,"4sEt5s2p0":3737,"cs2sFw5sF5s0p25":3738,"cs2sFw4sA3s0p25":3739,"cs2sFw5sA4s0p5":3740,"cs2sFw5sD5s1q3":3741,"cs2sFw3sE3s1p0":3742,"6sB5sB":3743,"4sBt3s1q3":3744,"4sBt4s1p5":3745,"4sCw4s1p0":3746,"6sA5s0p75":3747,"4sFw5s1p0":3748,"4sFw4s2p0":3749,"cs2sCw4sBt4s0p25":3750,"cs2sCw5sGw5s0p25":3751,"cs2sCw4sE4s1p0":3752,"cs2sCw5sG4s0p25":3753,"cs2sCw3sBt3s0p5":3754,"cs2sCw3sEt3s0p25":3755,"cs2sCw5sGw4s1q3":3756,"6sG5s2p0":3757,"6sG6sE6s0p25":3758,"6sG6s2p0":3759,"5sEt6s1p0":3760,"5sCw6sBt":3761,"rs5p25":3762,"cs3sGw6sC":3763,"cs4sE5sF":3764,"cs2sE5sE6s3p0":3765,"cs3sFw4sCw":3766,"cs4sG3sD":3767,"6sGw6s1p0":3768,"cs4sC4sB3sA":3769,"cs3sBt5sCw":3770,"cs4sA5sD":3771,"cs4sA5sF":3772,"cs4sA3sE":3773,"cs4sA5sCw6sE":3774,"cs4sD3sF":3775,"cs4sD6sGw":3776,"3sBt3sCw":3777,"cs3sCw5sGw":3778,"cs3sCw4sCw":3779,"cs3sCw3sF":3780,"cs3sCw7sA":3781,"cs4sB5sG":3782,"cs4sB6sGw":3783,"cs4sB3sD4sF":3784,"cs4sB5sG5sE":3785,"7sE6sE":3786,"cs4sF3sA3sC":3787,"cs2sE6sE5s1p5":3788,"cs2sE6sE7s1p0":3789,"7sC7sA":3790,"cs2sC5sE4s2p0":3791,"cs3sC4sE4sGw4s0p5":3792,"cs2sF4sF5s0p75":3793,"cs4sGw4sBt":3794,"cs2sG3sG4s1p5":3795,"cs4sEt6sFw":3796,"cs4sBt4sEt":3797,"cs2sA5sA4s1p5":3798,"cs4sCw5sGw":3799,"cs2sD5sD6s0p75":3800,"7sF6sBt6sD":3801,"cs3sE4sG3sC4s1p0":3802,"cs3sC5sE5sG5s0p5":3803,"cs3sC5sE5sC6s0p5":3804,"cs3sA4sC5sF5s1p0":3805,"cs2sGw4sGw5s0p75":3806,"cs2sD5sF4s0p5":3807,"cs3sG4sE4sC4s0p5":3808,"cs3sC4sF4sC5s0p25":3809,"cs3sF4sA4sD5s0p25":3810,"cs3sA3sC4sE4s0p25":3811,"cs3sA3sC4sF4s1p0":3812,"7sG6sC7sE":3813,"7sEt6s1q3":3814,"cs3sF4sGw4sC5s0p5":3815,"cs3sF4sGw4sC5s1p0":3816,"cs3sC5sA4sC4s0p25":3817,"cs3sE4sA4sE5s0p5":3818,"cs2sB5sB6s1q3":3819,"cs3sG4sC5sG5s1p0":3820,"cs3sG3sE4sG4s0p75":3821,"cs2sGw5sGw4s1p5":3822,"cs3sE5sC5sE4s0p25":3823,"cs2sBt5sBt4s1p0":3824,"cs2sBt5sBt6s1q3":3825,"cs2sBt5sBt4s1p5":3826,"cs2sD4sD5s1p5":3827,"cs3sG3sB3sD4s0p25":3828,"cs4sE4sG4sA":3829,"cs3sC4sC5sF4s1p0":3830,"cs8sF":3831,"cs3sB4sF5sB5s0p25":3832,"cs3sG4sBt4sG5s0p25":3833,"cs4sC5sE5sE":3834,"cs4sC5sE5sG5sC6s0p25":3835,"cs4sE4sE5sGw":3836,"cs3sB3sG4sB4s0p25":3837,"cs2sC5sEt5s0p5":3838,"cs2sB3sD4s1p5":3839,"cs3sGw3sB3sE4s1p0":3840,"cs3sEt4sG4sE4s0p25":3841,"cs3sG5sG6sE6s0p25":3842,"cs4sE4sA4sC":3843,"cs3sB2sD3sG3s0p25":3844,"3sB3sD4s0p75":3845,"cs3sF5sA5sC6s0p25":3846,"cs2sE3sE4s0p75":3847,"cs3sG4sC5sE4s0p25":3848,"cs3sG4sC5sE4s1p0":3849,"cs3sF4sBt4sD5s0p25":3850,"cs3sF5sGw5sC6s0p25":3851,"cs3sEt4sFw4sB4s0p25":3852,"cs2sF3sF4s2p0":3853,"cs2sF3sF4s3p0":3854,"cs3sFw4sEt5sFw5s0p25":3855,"cs2sA5sCw5s0p5":3856,"cs2sA5sCw6s1q3":3857,"cs2sA5sCw6s0p75":3858,"cs3sG6sE6sG5s0p25":3859,"cs3sE6sCw6sE5s0p25":3860,"cs5sF4sG4sB4sD":3861,"6sA5sA6s0p25":3862,"cs3sF3sA3sD4s0p25":3863,"cs3sFw5sEt6sFw6s0p25":3864,"cs4sE6sC6sA":3865,"cs3sC5sB4sA4s0p25":3866,"cs4sF5sG5sF5sG5s0p25":3867,"cs3sGw5sC5sGw4s0p25":3868,"cs3sEt5sGw4sC5s0p25":3869,"cs3sEt6sFw6sFw5s0p25":3870,"cs4sD6sB5sG":3871,"cs3sBt5sE5sCw5s0p25":3872,"cs4sE4sD4sC":3873,"cs4sC5sG4sE":3874,"cs4sD5sC5sG":3875,"cs4sEt5sC5sGw":3876,"cs4sG3sC4sE4sG":3877,"cs3sBt4sC5sBt4s0p25":3878,"cs4sBt4sC5sC":3879,"cs4sA4sCw5sE5sA5s0p25":3880,"cs4sEt5sD5sEt5sD5s0p25":3881,"cs4sCw4sE4sG4sBt4s0p25":3882,"cs4sA4sEt5sFw":3883,"cs4sD4sC4sB3sC4s0p25":3884,"cs5sA5sG":3885,"4s4p5":3886,"5s6p0":3887,"nsE7s1q3":3888,"nsE2s1p5":3889,"nsC3s3p0":3890,"nsC7s0p75":3891,"6s2p25":3892,"nsF3s3p0":3893,"nsF7s1p0":3894,"nsF4s1q12":3895,"nsB4s2q3":3896,"nsB4s4q3":3897,"nsD3s2p0":3898,"nsD6s1p25":3899,"nsD6s2q3":3900,"nsA5s2p5":3901,"nsA5s4p0":3902,"nsA4s2p25":3903,"cs2sE4sE4s0p25":3904,"cs2sE6sFw6s0p25":3905,"cs2sE3sGw3s0p25":3906,"cs2sE4sD4s1q3":3907,"cs2sE5sCw6s0p5":3908,"cs2sE6sG6s0p5":3909,"cs2sE4sB3s1q3":3910,"cs2sE6sF6s1q3":3911,"4sE4sG4s0p25":3912,"4sE4sC5s0p25":3913,"cs2sC3sC":3914,"cs2sC4sFw":3915,"cs2sC5sFw5s0p25":3916,"cs2sC3sFw3s0p5":3917,"5sE4s1q3":3918,"5sE6s1q12":3919,"5sE6s1q6":3920,"cs2sB6sD6s0p25":3921,"cs2sB4sFw4s0p25":3922,"cs2sB5sE5s1q3":3923,"cs2sB3sF3s0p5":3924,"cs2sB5sF6s0p25":3925,"cs2sB6sE6s1q3":3926,"cs2sB6sBt6s0p25":3927,"cs2sB3sGw4s0p25":3928,"cs2sB2sD3s1p0":3929,"cs2sB4sF5s0p75":3930,"cs2sB3sFw3s1q3":3931,"4sG4sB4s0p25":3932,"4sG4s3p0":3933,"4sG3s2p0":3934,"nsGw2s1p0":3935,"cs2sG4sA4s0p5":3936,"cs2sG6sFw6s0p25":3937,"cs2sG5sC5s1p0":3938,"cs2sG5sEt6s0p25":3939,"cs2sG5sB5s1q3":3940,"cs2sG4sEt4s1p0":3941,"cs2sG5sFw5s1q3":3942,"cs2sG4sB4s0p75":3943,"cs2sG3sEt3s0p25":3944,"cs2sG5sEt5s0p5":3945,"cs2sG3sBt3s1p0":3946,"cs2sD4sE4s0p5":3947,"cs2sD4sA4s1p0":3948,"cs2sD4sC4s0p5":3949,"cs2sD6sFw6s0p25":3950,"cs2sD2sA":3951,"cs2sD7sB6s0p25":3952,"cs2sD4sFw3s0p25":3953,"cs2sD7sG6s0p25":3954,"cs2sD6sF6s0p5":3955,"cs2sD4sE3s1p0":3956,"cs2sA4sE4s1p0":3957,"cs2sA4sD4s0p5":3958,"cs2sA5sC5s0p5":3959,"cs2sA5sB5s0p5":3960,"cs2sA5sF5s1q3":3961,"cs2sA5sFw5s0p5":3962,"cs2sA5sGw5s1q3":3963,"cs2sA5sCw5s1q3":3964,"cs2sA2sBt":3965,"cs2sA2sB2s0p25":3966,"cs2sA6sC7s1p0":3967,"5sC5sF":3968,"5sC5sD5s0p25":3969,"5sC6s1p75":3970,"nsEt5s3p0":3971,"nsFw3s2p0":3972,"nsFw4s1q12":3973,"cs2sF6sB5s0p25":3974,"cs2sF4sA3s0p25":3975,"cs2sF5sC5s0p5":3976,"cs2sF6sFw6s0p25":3977,"cs2sF4sGw4s1p0":3978,"cs2sF6sE6s1q3":3979,"cs2sF4sB3s0p5":3980,"cs2sF3sD3s0p25":3981,"cs2sF4sA3s1p0":3982,"cs2sF4sB3s1q3":3983,"cs2sF4sA4s2p0":3984,"4sA3sA":3985,"nsBt4s2q3":3986,"nsBt3s3p0":3987,"4sF4sCw":3988,"5sG5s3p0":3989,"nsCw4s2p0":3990,"nsCw7s1q3":3991,"5sA5sC6s1p0":3992,"5sA5s1q12":3993,"5sA4s1q6":3994,"cs3sE3sB":3995,"cs3sE4sC5sE5s0p75":3996,"cs3sC7sEt":3997,"cs3sC5sC6sE":3998,"5sD6sB":3999,"5sD5s1q6":4000,"6sE6sF6s0p25":4001,"4sGw4sC5s0p25":4002,"4sGw4sF4s0p25":4003,"cs2sGw4sB":4004,"cs2sGw5sD6s0p25":4005,"cs2sGw4sD5s1p0":4006,"cs2sGw3sF3s0p25":4007,"cs2sGw5sC5s1q3":4008,"cs2sGw4sB4s1p5":4009,"cs2sGw7sGw6s0p25":4010,"cs2sGw4sD5s1q3":4011,"cs2sGw5sB5s0p75":4012,"cs3sB3sCw":4013,"6sC6sG5s0p25":4014,"3sD3s2p0":4015,"cs2sEt6sF6s0p25":4016,"cs2sEt3sC3s0p25":4017,"cs2sBt4sB4s1q3":4018,"cs2sBt3sE3s0p5":4019,"cs2sBt6sCw7s0p25":4020,"cs2sBt5sCw6s1p0":4021,"cs2sBt3sE4s1q3":4022,"cs3sA2sC":4023,"cs3sF5sFw":4024,"cs3sF7sF":4025,"cs3sF5sE5sD5s0p25":4026,"cs2sFw3sC4s1p0":4027,"cs2sFw3sCw4s0p25":4028,"cs2sFw7sFw6s0p25":4029,"4sBt5s0p25":4030,"4sCw4sE":4031,"6sA5sF":4032,"6sA6s1p5":4033,"cs2sCw4sE":4034,"cs2sCw5sFw5s0p25":4035,"cs2sCw3sG3s0p25":4036,"cs2sCw4sFw4s0p25":4037,"cs2sCw6sC6s0p25":4038,"cs3sD5sBt":4039,"cs3sD6sGw":4040,"5sFw5sE5s0p25":4041,"3sF3s1p5":4042,"6sG5sG":4043,"6sG6sBt":4044,"6sG5sE6s0p25":4045,"5sEt6sEt5s0p25":4046,"5sBt4sC5s0p25":4047,"5sCw5s1p5":4048,"cs3sGw4sBt":4049,"cs3sGw5sEt":4050,"cs3sGw7sC":4051,"cs3sGw2sC":4052,"cs4sE5sBt":4053,"cs4sE7sC7sG":4054,"cs2sE5sE4s0p75":4055,"cs2sE5sE4s1p5":4056,"3sGw3s0p75":4057,"3sGw3sA3s0p25":4058,"cs4sG3sG":4059,"cs4sG5sEt":4060,"cs4sG3sA":4061,"cs4sG4sB4sE":4062,"6sGw6s1q3":4063,"cs4sC4sD":4064,"cs4sC4sC5sE":4065,"cs4sC7sA":4066,"cs4sC7sG":4067,"cs4sC5sEt5sFw":4068,"cs4sC5sD5sC":4069,"cs4sA4sFw":4070,"cs4sD4sD":4071,"cs4sD6sF":4072,"6sEt6sB5s0p25":4073,"cs4sB6sD":4074,"cs4sB4sC5sB":4075,"cs2sG4sG5s1p25":4076,"6sCw7sE7s0p25":4077,"3sFw3sA":4078,"cs2sE6sE5s2p0":4079,"cs2sC5sE4s1q3":4080,"cs2sC5sE4s1p5":4081,"cs3sC4sE3sE4s0p5":4082,"cs3sC4sE3sC3s0p5":4083,"rs19q6":4084,"cs2sC5sC6s1p5":4085,"cs4sGw5sGw":4086,"cs2sB4sB3s1q3":4087,"7sA7s1q3":4088,"cs4sBt3sE":4089,"cs2sA5sA4s1q3":4090,"cs3sG3sC4sEt4s1p0":4091,"cs3sE4sC4sG3s1p0":4092,"cs2sB3sB4s1p5":4093,"cs4sCw6sBt":4094,"cs4sFw5sE":4095,"cs4sFw5sFw":4096,"cs4sFw5sEt":4097,"cs2sD5sD6s1p5":4098,"7sF7s1q3":4099,"2sC3s1p0":4100,"cs3sC5sE4sC4s0p25":4101,"cs2sA3sA4s2p0":4102,"cs2sA3sA2s0p25":4103,"cs2sD5sF4s1q3":4104,"cs3sG4sE4sC4s0p25":4105,"cs2sF6sF5s1q3":4106,"7sD7sB":4107,"cs3sF4sA3sA":4108,"cs3sF4sA4sE5s0p25":4109,"cs3sA3sC4sF4s0p25":4110,"7sG6s0p5":4111,"cs3sB3sD4sGw4s1p0":4112,"cs3sF4sD5sF5s0p5":4113,"cs3sF4sGw4sC5s0p25":4114,"cs3sC5sA4sEt4s0p25":4115,"cs3sE4sA4sD5s0p25":4116,"cs3sE4sA4sC5s0p5":4117,"cs3sG4sC4sE4s0p5":4118,"cs3sD4sB4sB3s0p25":4119,"cs3sE5sE4sC5s0p5":4120,"cs3sE3sC4sE4s0p25":4121,"cs3sA4sF5sA5s0p75":4122,"cs3sD5sF5sB5s0p25":4123,"cs2sD4sF3s0p25":4124,"cs3sG5sE6sG6s0p25":4125,"cs3sG3sB3sD4s1p0":4126,"cs2sEt6sEt7s0p25":4127,"cs2sEt4sEt3s0p5":4128,"cs2sEt4sEt5s0p75":4129,"cs3sC4sC5sG4s1p0":4130,"cs2sC7sC6s0p5":4131,"cs2sC7sC6s1q3":4132,"cs3sC5sC4sEt4s0p5":4133,"cs3sB4sE5sG5s0p25":4134,"cs4sE5sG4sB4sD5s0p25":4135,"4sD5sF4s0p25":4136,"4sD5sF4s0p5":4137,"cs3sE6sE7sF7s0p25":4138,"cs3sE5sGw4sB4s0p5":4139,"cs2sFw3sFw4s0p5":4140,"cs2sFw4sFw5s1p0":4141,"cs4sE4sA4sC5sE":4142,"cs3sC6sC5sA5s0p25":4143,"cs4sE5sC5sE":4144,"cs3sD4sA4sC5s0p25":4145,"cs2sE3sE2s0p25":4146,"cs3sC3sE3sG3s0p5":4147,"cs3sB4sA4sG4s0p25":4148,"cs3sF4sBt4sD5s0p5":4149,"cs3sF4sG4sF5s1p0":4150,"cs3sGw5sB5sE6s0p25":4151,"cs3sEt4sGw4sC5s1p0":4152,"cs4sE3sG3sC4sE":4153,"cs2sE2sE3s1p0":4154,"cs3sA4sG4sF4s0p25":4155,"cs3sFw3sA3sD4s0p25":4156,"cs2sG5sBt5s0p5":4157,"cs3sD3sG3sB3s1p0":4158,"2sCw3s0p5":4159,"cs3sD3sF3sGw3s1p0":4160,"cs3sC5sFw5sC6s0p5":4161,"cs4sE5sGw5sB":4162,"cs3sB4sC5sD5s0p25":4163,"cs3sD6sA5sF5s0p25":4164,"cs2sB3sF3s1q3":4165,"cs3sE6sB6sE":4166,"cs4sE6sC6sG":4167,"cs3sEt4sA4sC5s0p25":4168,"cs4sC6sE5sG":4169,"cs2sF4sD4s0p75":4170,"cs2sG3sB3s2p0":4171,"cs3sE5sC6sE6s0p5":4172,"cs3sD3sB3sD4s1p0":4173,"cs4sB5sE6sG":4174,"cs4sE5sG5sC6sE6s1p0":4175,"cs3sF5sBt5sD6s1p0":4176,"cs3sGw5sC6sGw6s0p25":4177,"cs4sA4sC5sE5sA5s0p25":4178,"cs3sC4sA3sA4s0p25":4179,"cs4sG5sG4sC5sE5s0p25":4180,"cs4sCw5sE5sA":4181,"cs3sB2sF3sG3s0p75":4182,"cs4sF4sGw4sC":4183,"cs2sC4sA4s3p0":4184,"cs4sG4sBt4sE5sG5s0p5":4185,"cs2sC4sEt3s0p25":4186,"cs4sG5sE5sC5sG5s0p25":4187,"7sC7sG6s0p5":4188,"3sGw3sD4sE4s0p25":4189,"cs2sA6sA5s2p0":4190,"cs4sG3sB3sD4sG4s0p25":4191,"cs4sC4sGw3sEt":4192,"5sD5sE5sF5sG5s0p25":4193,"cs3sGw7sC7sGw6s0p25":4194,"0s":4195,"4s7q6":4196,"nsG7s0p5":4197,"nsG2s2p0":4198,"nsG3s1q12":4199,"nsG4s7q3":4200,"nsE4s4p0":4201,"nsE5s4p0":4202,"nsE6s1p75":4203,"nsE4s2p25":4204,"nsE5s5":4205,"nsC2s0p5":4206,"6s6p0":4207,"nsB4s1q12":4208,"nsB3s1p25":4209,"nsB3s2q3":4210,"nsD2s1q3":4211,"nsD5s4q3":4212,"nsA2s0p75":4213,"nsA3s1p75":4214,"nsA2s1p5":4215,"cs2sE6sB5s0p25":4216,"cs2sE6sA6s0p25":4217,"cs2sE3sD4s1p0":4218,"cs2sE4sA3s0p5":4219,"cs2sE6sA6s0p5":4220,"cs2sE6sG6s1p0":4221,"4sE5sGw":4222,"4sE5s1p25":4223,"cs2sC4sGw4s0p5":4224,"cs2sC6sF5s0p25":4225,"cs2sC5sFw4s0p25":4226,"cs2sC4sB3s0p5":4227,"cs2sC4sBt3s0p25":4228,"cs2sC4sD4s1q3":4229,"cs2sC4sG4s2p0":4230,"cs2sC6sA5s1q3":4231,"cs2sC6sA6s0p5":4232,"cs2sC4sA3s1q3":4233,"cs2sC7sG6s0p25":4234,"cs2sC6sEt5s0p25":4235,"cs2sC5sGw4s0p5":4236,"4sC5sG":4237,"4sC5sB4s0p25":4238,"4sC5s1p25":4239,"4sC5sG4s0p25":4240,"5sE5sE":4241,"5sE6s2p0":4242,"cs2sB4sA4s0p5":4243,"cs2sB4sGw4s1q3":4244,"cs2sB3sE3s1p0":4245,"cs2sB3sGw3s1p0":4246,"cs2sB4sEt5s1p0":4247,"cs2sB2sE3s0p5":4248,"cs2sB5sF6s1q3":4249,"4sB3sG":4250,"4sB4s1p25":4251,"4sB4s1q12":4252,"4sG4s1p25":4253,"4sG4sBt4s0p75":4254,"nsGw3s3p0":4255,"cs2sG4sE":4256,"cs2sG5sC6s0p5":4257,"cs2sG3sCw4s0p25":4258,"cs2sG6sGw6s0p25":4259,"cs2sG4sB4s1q3":4260,"cs2sG5sB4s1q3":4261,"cs2sG4sC4s1p0":4262,"cs2sG3sC3s0p25":4263,"cs2sG4sF4s1q3":4264,"cs2sG3sC4s1q3":4265,"cs2sG4sFw4s1q3":4266,"cs2sG3sE3s1p0":4267,"cs2sG3sC4s2p0":4268,"cs2sD3sD":4269,"cs2sD5sD5s0p25":4270,"cs2sD6sB6s0p25":4271,"cs2sD6sGw5s0p25":4272,"cs2sD5sFw4s0p25":4273,"cs2sD5sFw5s1p0":4274,"cs2sD4sG4s2p0":4275,"cs2sD4sG3s1p0":4276,"cs2sD5sEt5s1q3":4277,"cs2sD4sEt4s1q3":4278,"cs2sD4sE3s0p25":4279,"cs2sA4sD4s0p25":4280,"cs2sA4sB4s0p5":4281,"cs2sA4sEt5s0p25":4282,"cs2sA4sE5s1p0":4283,"cs2sA4sFw4s1q3":4284,"cs2sA4sEt5s0p5":4285,"cs2sA3sFw4s0p5":4286,"cs2sA4sFw5s0p5":4287,"cs2sA3sG3s1q3":4288,"cs2sA3sBt3s1q3":4289,"5sC6sG5s0p25":4290,"5sC6s1q6":4291,"nsEt3s1p5":4292,"nsEt2s0p5":4293,"nsEt7s0p5":4294,"nsEt6s1p5":4295,"nsFw6s0p75":4296,"nsFw4s2q3":4297,"nsFw4s7q3":4298,"cs2sF4sGw":4299,"cs2sF5sC6s0p25":4300,"cs2sF5sG5s0p5":4301,"cs2sF3sE3s0p25":4302,"cs2sF3sBt3s0p5":4303,"cs2sF6sC6s1q3":4304,"cs2sF4sB4s1p5":4305,"cs2sF7sFw7s0p25":4306,"cs2sF4sBt4s1q3":4307,"cs2sF6sD6s1p0":4308,"4sA4sCw":4309,"4sD4sF4s0p25":4310,"4sD4s3p0":4311,"4sD5sD4s0p25":4312,"4sF3s1p0":4313,"5sG5sG":4314,"3sC4sE4s0p5":4315,"5sD5sE5s0p25":4316,"5sD5sC5s0p25":4317,"6sE6sD":4318,"6sE5sG5s0p25":4319,"4sGw4s3p0":4320,"cs2sGw4sG4s0p5":4321,"cs2sGw4sD5s0p5":4322,"cs2sGw3sF4s0p25":4323,"cs2sGw4sC5s1q3":4324,"cs2sGw3sCw4s0p25":4325,"cs2sGw4sE5s1p0":4326,"cs2sGw5sB5s1p0":4327,"cs2sGw5sB5s1q3":4328,"cs2sGw3sA3s1q3":4329,"3sE3s2p0":4330,"3sE3s1p5":4331,"cs3sB6sE":4332,"cs3sB6sG":4333,"cs3sB3sFw":4334,"3sB3s1p5":4335,"cs3sG3sD4sF":4336,"3sD4sC":4337,"3sD4s3p0":4338,"cs2sEt4sA4s0p5":4339,"cs2sEt5sG4s0p25":4340,"cs2sEt6sFw6s0p25":4341,"cs2sEt4sC4s1p0":4342,"cs2sEt3sEt4s0p5":4343,"cs2sEt4sGw3s0p5":4344,"cs2sEt7sA6s1q3":4345,"cs2sBt5sF5s0p25":4346,"cs2sBt3sA3s0p25":4347,"cs2sBt3sD4s1p0":4348,"cs2sBt5sC5s1q3":4349,"cs2sBt5sEt6s0p25":4350,"cs2sBt5sC6s1q3":4351,"cs2sBt5sCw6s0p5":4352,"cs2sBt4sD5s1q3":4353,"cs2sBt4sCw5s0p75":4354,"cs3sA4sCw5sE":4355,"4sEt3s0p25":4356,"cs3sF5sCw":4357,"cs2sFw3sC4s0p25":4358,"cs2sFw3sD4s0p5":4359,"cs2sFw6sD6s0p25":4360,"cs2sFw5sCw5s0p25":4361,"cs2sFw6sA5s0p5":4362,"cs2sFw5sEt5s0p5":4363,"4sBt3s2p0":4364,"5sGw5sB5s0p25":4365,"4sFw4sE":4366,"cs2sCw5sF5s0p25":4367,"cs2sCw6sA5s0p25":4368,"cs2sCw4sF4s1p0":4369,"cs2sCw6sEt6s0p25":4370,"cs2sCw3sGw3s0p25":4371,"cs2sCw6sA5s0p5":4372,"cs2sCw3sCw4s0p5":4373,"cs2sCw3sE3s0p5":4374,"cs2sCw6sA5s1q3":4375,"cs2sCw5sA4s1q3":4376,"cs2sCw2sD2s0p25":4377,"cs2sCw4sBt3s1p0":4378,"cs3sD5sE":4379,"cs3sD6sE":4380,"cs3sD6sC":4381,"cs3sD4sEt":4382,"5sFw4s1p0":4383,"5sFw5sB5s0p25":4384,"3sF4sG":4385,"3sF3s0p75":4386,"6sD7s2p0":4387,"6sG5sD5s2q3":4388,"5sEt4s0p5":4389,"6sF5s1p0":4390,"5sCw5sE":4391,"cs3sGw5sA":4392,"cs3sGw2sD":4393,"cs4sE3sGw3sD4sE4s0p25":4394,"cs3sEt6sGw":4395,"cs3sEt3sCw":4396,"cs3sFw6sB":4397,"cs3sFw3sEt":4398,"cs3sFw3sFw":4399,"cs3sFw5sE5sD5s0p25":4400,"3sGw2s0p25":4401,"cs4sG5sFw":4402,"cs4sG5sB5sD":4403,"cs4sG5sBt5sCw":4404,"cs4sC5sGw":4405,"cs3sBt5sF":4406,"cs3sBt6sG":4407,"cs3sBt2sEt":4408,"cs4sA4sC5sEt":4409,"cs4sA3sC4sEt":4410,"cs4sD4sGw":4411,"6sEt6sC":4412,"3sBt4s0p25":4413,"3sBt3sA3s0p25":4414,"cs3sCw3sE":4415,"cs3sCw6sG":4416,"cs3sCw6sF":4417,"cs3sCw3sGw3sC4s0p25":4418,"3sEt4s0p75":4419,"3sEt3s2p0":4420,"6sCw7sE":4421,"6sCw7s0p5":4422,"6sCw6sCw7s0p25":4423,"cs4sF4sG":4424,"cs4sF5sC":4425,"cs4sF3sF":4426,"7sC6s0p25":4427,"cs2sC5sE5s1p5":4428,"cs2sC5sE5s3p0":4429,"cs2sA4sA3s1p0":4430,"cs2sA4sA5s2p0":4431,"cs3sC4sE4sG4s2p0":4432,"cs2sF5sF6s1q3":4433,"cs2sF5sF6s2p0":4434,"cs2sC6sC5s1p5":4435,"2sD2s0p5":4436,"7sB6s0p5":4437,"cs2sF4sF5s1q3":4438,"cs2sC5sC6s1q3":4439,"cs2sC5sC6s3p0":4440,"cs4sGw2sB":4441,"cs2sG3sG2s1p0":4442,"cs2sG3sG2s2p0":4443,"cs4sEt5sBt4sD":4444,"cs4sBt2sC3sE":4445,"cs3sG3sC4sEt4s0p25":4446,"cs3sG3sC4sE4s0p75":4447,"cs3sE4sC5sC":4448,"cs2sB3sB4s2p0":4449,"cs4sFw6sA":4450,"7sF6s1q3":4451,"cs3sC5sE4sE5s0p25":4452,"cs3sC5sE5sC6s1q3":4453,"cs3sA4sC5sA":4454,"cs3sA4sC5sF4s0p5":4455,"cs3sG4sE4sCw4s0p25":4456,"cs3sG4sE5sG5s1p0":4457,"2sG3s0p5":4458,"7sD7s1q3":4459,"cs2sEt5sEt4s1p0":4460,"cs2sEt5sEt6s0p75":4461,"cs3sF4sA4sC5s0p5":4462,"cs3sF4sA4sF5s0p5":4463,"cs3sA3sC4sA4s0p75":4464,"cs2sC6sE6s1q3":4465,"7sG7sBt6s0p25":4466,"7sGw7sB6s0p25":4467,"cs3sB3sD4sF4s0p25":4468,"cs3sB3sD4sG4s0p5":4469,"7sEt7s1q3":4470,"cs3sE5sG5sG4s0p25":4471,"cs3sF4sD5sD4s0p25":4472,"cs3sF4sGw4sF5s0p25":4473,"cs3sC5sA5sC6s1p0":4474,"cs3sE4sA4sC5s1p0":4475,"cs2sB5sB6s0p75":4476,"cs2sB4sD5s2p0":4477,"cs3sC4sG3sE4s0p25":4478,"cs3sB4sD5sF5s1p0":4479,"cs3sD4sB3sF3s0p5":4480,"cs3sE5sE4sC5s0p25":4481,"cs3sE5sC5sC6s0p25":4482,"cs3sF4sB4sD5s0p5":4483,"cs2sGw3sGw2s0p5":4484,"cs3sA4sF4sD5s0p5":4485,"cs3sG5sE5sE6s0p25":4486,"cs3sF4sC5sGw":4487,"cs2sD4sD5s1q3":4488,"cs2sD4sD3s1q3":4489,"cs3sB3sF4sG4s0p5":4490,"cs3sB3sF4sA4s0p5":4491,"cs3sB3sF4sD5s1p0":4492,"cs2sEt6sEt5s1p0":4493,"cs2sEt6sEt5s1p5":4494,"cs3sF3sB3sEt4s0p25":4495,"cs3sE4sE5sC5s0p25":4496,"cs3sE4sGw4sCw5s1p0":4497,"cs3sA5sC6sA6s0p25":4498,"cs3sG4sG5sE5s0p25":4499,"cs4sE4sG4sC":4500,"cs3sC6sE6sA6s0p25":4501,"cs3sB4sE5sB5s0p25":4502,"cs3sB4sE5sGw5s0p25":4503,"cs3sB4sE5sB5s1p0":4504,"cs3sE5sB4sE4s0p25":4505,"cs3sE5sB4sGw4s0p25":4506,"cs3sGw4sC5sF5s0p25":4507,"cs3sF5sD5sA4s0p25":4508,"cs3sG5sB5sE6s0p25":4509,"cs3sD4sG4sB4s0p25":4510,"cs3sE6sE5sC6s0p25":4511,"cs3sC5sF5sA5s0p25":4512,"cs3sC6sA6sC7s0p25":4513,"cs3sC6sA5sC5s0p5":4514,"cs3sB3sE4sGw4s0p25":4515,"cs4sE4sE5sC":4516,"cs3sB3sG4sB4s1q3":4517,"cs4sE5sC6sB5sC6s0p25":4518,"cs3sD5sD6sF5s0p25":4519,"cs3sA5sF6sA6s0p25":4520,"cs2sE3sE4s1q3":4521,"cs2sE3sE4s2p0":4522,"cs2sE3sE2s0p5":4523,"cs3sB4sA4sF4s0p25":4524,"cs3sGw3sC4sF4s0p5":4525,"cs3sCw4sE4sBt4s1p0":4526,"4sC5sEt5s1p0":4527,"cs3sD4sE4sB4s0p25":4528,"cs3sGw5sE6sE5s1q3":4529,"cs4sB4sD5sE":4530,"cs5sC5sD5sE5sF5sG5s0p25":4531,"cs2sC4sF3s0p25":4532,"cs3sB5sG6sB":4533,"cs3sB5sG6sG5s0p25":4534,"cs3sG4sF4sB3s1q3":4535,"cs3sC4sFw4sC5s1p0":4536,"cs3sC4sFw4sB4s2q3":4537,"cs3sA4sD5sF5s0p25":4538,"2sFw3s0p25":4539,"cs2sF3sF4s1p5":4540,"cs3sA6sA5sC6s1p0":4541,"nsA1s1p5":4542,"4sCw5sE5s0p75":4543,"cs4sE3sG3sC4sE4s1p0":4544,"cs3sD5sA5sD6s0p25":4545,"cs4sD5sFw5sC":4546,"cs4sD5sFw5sD5sG5s0p25":4547,"cs3sG3sD4sG4s0p5":4548,"cs3sD3sG3sB3s0p25":4549,"cs3sD6sB5sG5s0p25":4550,"cs3sE6sCw6sG5s0p5":4551,"cs3sEt5sFw5sFw4s0p25":4552,"cs2sB2sG3s0p25":4553,"cs2sE3sG3s1q3":4554,"cs2sG2sG3s0p25":4555,"cs2sG2sG3s0p5":4556,"cs4sGw4sE4sE":4557,"cs3sGw3sE4sGw4s1q3":4558,"cs3sC5sB4sC5s0p25":4559,"cs4sB5sE6sGw":4560,"cs4sE5sG5sC6sE6s0p5":4561,"cs4sC4sG3sE3sE4s0p25":4562,"cs4sD4sG4sB4sD":4563,"cs3sC4sA3sA4s0p5":4564,"cs2sG3sE4s1q3":4565,"cs2sG3sE3s2p0":4566,"cs4sG5sA5sG5sE5s0p25":4567,"cs3sG5sA5sB5s1q3":4568,"cs4sE4sD5sC5sD5s0p25":4569,"cs3sEt3sC4sEt4s0p5":4570,"cs4sG4sD4sB":4571,"cs2sC2sC3s1p0":4572,"cs4sG4sC5sE5sG5s0p25":4573,"cs2sC7sA6s1p0":4574,"cs3sA3sB3sA3s0p25":4575,"cs4sF3sG3sB3sD4s0p25":4576,"cs3sG3sEt4sG4s0p5":4577,"cs3sF6sBt6sD7s1p0":4578,"cs3sEt5sBt4sCw5s0p25":4579,"cs4sD6sC6sG5sD5s2q3":4580,"cs4sD4sA4sC5sD5s2q3":4581,"cs2sD6sFw5s0p5":4582,"5sA5sB5sC6s0p25":4583,"cs4sB4sGw4sD":4584,"cs3sE5sF5sE5s0p25":4585,"cs4sA4sG4sFw4sG4s0p25":4586,"cs4sCw4sE4sG4sCw5s0p25":4587,"cs2sC3sEt3s0p75":4588,"cs3sG5sGw5sD5s0p25":4589,"cs3sF5sE5sF5s1q3":4590,"cs3sFw3sCw4sF4s0p25":4591,"cs4sG3sC4sE4sG4s0p25":4592,"cs3sCw4sG4sCw5s0p25":4593,"cs4sGw4sB4sE5sGw5s0p5":4594,"cs2sCw3sCw4s2p0":4595,"cs4sD7sB6sG6sD6s0p25":4596,"cs4sB6sB5sEt":4597,"cs4sA4sC5sF5sA5s1p0":4598,"cs4sC3sF3sA":4599,"cs6sFw6sFw7sEt":4600,"cs4sC5sB4sC5sB":4601,"cs4sD5sBt4sG4sD4s1p0":4602,"cs4sE3sA3sC4sE4s0p25":4603,"cs4sG3sB3sF":4604,"cs4sFw4sG4sFw4sG4s0p25":4605,"cs4sC4sB3sA3sB3s0p25":4606,"cs4sB3sD4sF4sB4s0p25":4607,"cs4sE4sD4sC4sD4s0p25":4608,"cs5sA5sG5sA5sB5sC6s0p25":4609,"cs4sB4sC5sB4sC5s0p25":4610,"cs4sC4sGw3sEt3sEt4s0p25":4611,"cs3sEt3sCw4sEt4s0p25":4612,"cs4sEt5sBt4sD5sG4s0p25":4613,"4s4":4614,"4s6p0":4615,"4s3p75":4616,"2s2q3":4617,"3s6p0":4618,"nsG6s3p0":4619,"nsG5s1q6":4620,"nsG3s1p25":4621,"nsE5s3p5":4622,"nsE7s1p25":4623,"nsC5s2p25":4624,"nsC6s2p5":4625,"nsF4s2p5":4626,"nsF6s3p0":4627,"nsF6s1p25":4628,"nsF3s1p75":4629,"nsF5s2p25":4630,"nsB6s1p75":4631,"nsD5s1p75":4632,"nsD6s3p0":4633,"nsD5s4p0":4634,"nsA3s":4635,"nsA5s1p25":4636,"nsA5s2q3":4637,"nsA4s4p0":4638,"cs2sE3sB3s0p5":4639,"cs2sE7sB6s0p25":4640,"cs2sE3sD3s0p25":4641,"cs2sE3sC4s1q3":4642,"cs2sE7sG6s0p25":4643,"cs2sE6sC6s1p0":4644,"cs2sE5sGw4s1p0":4645,"cs2sE6sGw5s1q3":4646,"cs2sE6sCw6s0p5":4647,"cs2sE2sF2s0p25":4648,"4sE4sGw":4649,"cs2sC3sC4s1p0":4650,"cs2sC6sFw6s0p25":4651,"cs2sC3sA3s0p5":4652,"cs2sC5sF5s1p0":4653,"cs2sC4sG3s0p5":4654,"cs2sC4sA4s1p5":4655,"cs2sC5sCw5s1q3":4656,"cs2sC6sD6s0p5":4657,"cs2sC5sF4s0p25":4658,"cs2sC5sA4s1q3":4659,"cs2sC4sFw3s0p25":4660,"cs2sC3sA2s0p25":4661,"cs2sC5sFw4s1q3":4662,"cs2sB4sB4s0p25":4663,"cs2sB5sB5s0p25":4664,"cs2sB6sG6s0p25":4665,"cs2sB4sG4s1q3":4666,"cs2sB5sD5s0p5":4667,"cs2sB4sGw4s1p0":4668,"cs2sB4sFw4s0p5":4669,"cs2sB3sGw3s0p5":4670,"cs2sB3sA3s1p0":4671,"cs2sB5sGw5s1p0":4672,"cs2sB5sE6s0p5":4673,"cs2sB3sF3s1p0":4674,"cs2sB2sC3s0p25":4675,"cs2sB6sA6s1q3":4676,"cs2sB1sB":4677,"cs2sB3sGw4s0p5":4678,"4sG5s2p0":4679,"cs2sG3sA":4680,"cs2sG5sF5s0p5":4681,"cs2sG2sD3s0p25":4682,"cs2sG4sC5s0p75":4683,"cs2sG3sB2s0p25":4684,"cs2sG5sEt5s1q3":4685,"cs2sD4sG":4686,"cs2sD6sD6s0p25":4687,"cs2sD3sA3s0p25":4688,"cs2sD5sG5s1q3":4689,"cs2sD4sBt4s0p5":4690,"cs2sD5sGw5s0p5":4691,"cs2sD5sFw5s0p5":4692,"cs2sD4sFw4s1p0":4693,"cs2sD6sF6s1q3":4694,"cs2sD4sE4s0p75":4695,"cs2sD7sA6s1q3":4696,"cs2sD3sD4s1q3":4697,"cs2sA4sB":4698,"cs2sA3sFw":4699,"cs2sA4sD5s1p0":4700,"cs2sA3sB3s0p5":4701,"cs2sA5sC5s1q3":4702,"cs2sA6sCw6s0p25":4703,"cs2sA3sF3s0p5":4704,"cs2sA5sEt6s0p25":4705,"cs2sA3sC4s0p75":4706,"cs2sA4sD5s0p75":4707,"cs2sA5sFw6s0p25":4708,"cs2sA2sE3s0p5":4709,"cs2sA2sF2s0p25":4710,"5sC5sE5s0p25":4711,"nsEt4s1p25":4712,"cs2sF4sFw4s0p25":4713,"cs2sF4sCw5s0p25":4714,"cs2sF5sB4s0p5":4715,"cs2sF6sBt5s0p25":4716,"cs2sF5sB4s1q3":4717,"cs2sF7sC7s0p25":4718,"cs2sF4sGw3s0p5":4719,"cs2sF6sA6s1q3":4720,"4sA5s0p5":4721,"4sA4sG":4722,"4sA4sF":4723,"4sA5s1p5":4724,"5sB6s0p25":4725,"5sB4sB":4726,"nsBt7s0p25":4727,"nsBt6s1p0":4728,"nsBt4s4p0":4729,"4sF4sA4s0p25":4730,"5sG5sF5s0p25":4731,"5sG5s1p25":4732,"5sG5s1p75":4733,"nsCw6s0p75":4734,"nsCw5s1p25":4735,"3sC4s2p5":4736,"cs3sE5sFw":4737,"cs3sE4sC5sE":4738,"cs3sE7sGw":4739,"cs3sE5sFw5sG5s0p25":4740,"cs3sE4sF4sG4s0p25":4741,"cs3sC7sG":4742,"cs3sC7sGw":4743,"5sD4s1p0":4744,"5sF5sGw5s0p25":4745,"5sF5s2q3":4746,"5sF6sF5s0p25":4747,"4sGw5s0p75":4748,"cs2sGw6sC7s0p25":4749,"cs2sGw4sC4s0p5":4750,"cs2sGw4sG4s1q3":4751,"cs2sGw3sCw4s0p5":4752,"cs2sGw4sC5s2p0":4753,"3sE3sF3s0p25":4754,"cs3sB3sC":4755,"cs3sB5sFw":4756,"cs3sB6sB5sGw":4757,"3sB3sE":4758,"3sB3sD4s0p25":4759,"6sC6sFw":4760,"cs3sG6sGw":4761,"cs3sG5sC6sE":4762,"3sG4s2p0":4763,"3sG3sB3sD":4764,"3sD4s1p25":4765,"cs2sEt4sFw":4766,"cs2sEt6sB5s0p25":4767,"cs2sEt4sA4s1p0":4768,"cs2sEt3sB3s0p5":4769,"cs2sEt5sC5s0p5":4770,"cs2sEt5sA4s0p5":4771,"cs2sEt6sGw5s0p25":4772,"cs2sEt3sFw3s0p25":4773,"cs2sEt7sE7s0p25":4774,"cs2sEt5sGw5s1q3":4775,"cs2sEt7sC7s0p25":4776,"cs2sEt4sG4s2p0":4777,"cs2sEt4sC5s1p5":4778,"cs2sEt4sFw3s0p25":4779,"cs2sEt4sBt3s2p0":4780,"cs2sBt4sE5s0p25":4781,"cs2sBt3sE4s0p25":4782,"cs2sBt4sEt5s0p25":4783,"cs2sBt4sE5s0p5":4784,"cs2sBt4sC5s1q3":4785,"cs2sBt4sG4s1q3":4786,"cs2sBt4sE5s1p0":4787,"cs2sBt5sG6s0p25":4788,"cs2sBt5sGw5s1q3":4789,"cs2sBt4sD5s0p75":4790,"cs2sBt7sBt6s0p25":4791,"cs2sBt3sEt4s1p0":4792,"cs2sBt2sEt":4793,"cs2sBt3sGw4s0p25":4794,"cs3sA5sGw":4795,"cs3sA3sD4sF":4796,"4sEt5s1p5":4797,"4sEt4sC4s0p25":4798,"4sEt5s3p0":4799,"cs3sF4sEt":4800,"cs2sFw5sC6s0p25":4801,"cs2sFw5sB4s0p25":4802,"cs2sFw4sB3s0p25":4803,"cs2sFw6sA5s0p25":4804,"cs2sFw5sB4s0p5":4805,"cs2sFw3sA3s1p0":4806,"cs2sFw4sA4s1p5":4807,"6sB6sA":4808,"4sBt3s3p0":4809,"5sGw4s1p5":4810,"4sCw5sGw":4811,"4sCw5sBt4s0p25":4812,"6sA6s2p0":4813,"4sFw5s1q3":4814,"4sFw4sC5s1p0":4815,"4sFw4sEt4s0p25":4816,"cs2sCw4sA4s0p25":4817,"cs2sCw4sA4s1p0":4818,"cs2sCw5sGw4s0p25":4819,"cs2sCw5sBt5s0p25":4820,"cs2sCw5sA4s0p5":4821,"cs2sCw5sA5s1p0":4822,"cs2sCw6sGw5s0p25":4823,"cs2sCw4sG3s0p5":4824,"cs2sCw6sE6s0p5":4825,"cs2sCw4sG3s1q3":4826,"cs2sCw5sBt4s0p5":4827,"cs2sCw3sA2s0p25":4828,"cs3sD7sC":4829,"cs3sD5sFw5sA5s0p25":4830,"5sFw5sFw":4831,"6sG6sF":4832,"6sG5sC6s0p25":4833,"5sEt5s0p75":4834,"6sF6sA6s0p25":4835,"5sBt5s1p25":4836,"5sCw4s0p25":4837,"5sCw6sF6s1p0":4838,"cs3sGw3sBt":4839,"cs4sE4sFw":4840,"cs4sE6sF":4841,"cs4sE3sGw":4842,"cs3sEt6sB":4843,"cs3sFw5sG":4844,"cs3sFw7sFw":4845,"cs4sG4sF":4846,"cs4sG5sF":4847,"cs4sG6sB":4848,"cs4sG5sBt":4849,"cs4sG2sC":4850,"cs4sG5sC6sE":4851,"cs4sG5sF5sB":4852,"cs4sC7sE":4853,"cs3sBt4sGw":4854,"cs3sBt2sE":4855,"cs4sA2sG":4856,"cs4sA4sD5sF":4857,"cs4sA5sE5sC":4858,"cs4sA3sCw4sE":4859,"6sFw6sA6s0p25":4860,"cs3sCw4sEt":4861,"cs3sCw3sGw":4862,"3sEt4s1q3":4863,"cs4sB3sA":4864,"cs4sB3sGw":4865,"6sCw6sCw":4866,"7sE7sC":4867,"7sE7sF":4868,"cs4sF3sGw":4869,"cs4sF7sF":4870,"cs4sF5sBt5sCw":4871,"7sC8s0p25":4872,"cs3sC4sE3sG3s0p5":4873,"cs3sC4sE4sA4s1p5":4874,"cs2sG5sG4s1p5":4875,"cs2sF5sF4s1p5":4876,"7sB6sB":4877,"rs19q12":4878,"cs4sEt5sEt":4879,"cs2sB4sB5s2p0":4880,"cs4sBt5sG":4881,"cs4sBt3sC":4882,"cs4sBt4sBt":4883,"cs2sA5sA4s2p0":4884,"cs3sG3sC4sEt4s0p5":4885,"cs3sE4sC4sA4s0p25":4886,"cs3sE4sC4sG4s0p5":4887,"cs2sB3sB2s0p5":4888,"cs4sCw6sGw":4889,"cs4sCw6sFw":4890,"cs4sCw5sBt4sG":4891,"cs4sFw4sBt":4892,"cs4sFw6sEt6sFw":4893,"cs4sFw5sBt5sCw":4894,"cs2sD6sD5s0p75":4895,"cs2sD6sD5s2p0":4896,"cs2sD6sD7s1q3":4897,"cs2sE4sC4s2p0":4898,"cs3sE4sG4sC4s0p5":4899,"cs3sC5sE4sG4s1p0":4900,"cs3sA4sC4sA3s0p25":4901,"1sD":4902,"cs3sD4sF4sD5s0p5":4903,"cs3sG4sE4sC5s1p0":4904,"7sD6s0p25":4905,"cs2sEt5sEt6s1p0":4906,"cs3sF4sA3sC4s0p5":4907,"cs2sC6sE6s3p0":4908,"cs3sB3sD4sD":4909,"cs2sFw5sFw4s1p0":4910,"cs2sFw5sFw6s1q3":4911,"cs2sFw5sFw6s1p0":4912,"cs3sC4sA4sF4s0p5":4913,"cs2sBt3sBt4s2p0":4914,"cs2sBt3sBt2s0p25":4915,"cs3sE5sG4sC5s1p0":4916,"cs3sE5sG4sG5s0p25":4917,"cs3sF4sD4sA4s0p25":4918,"cs3sC5sA5sC6s0p25":4919,"cs3sE4sA4sCw5s0p25":4920,"2sF3s0p5":4921,"cs2sD4sB3s0p75":4922,"cs2sD4sB3s1p5":4923,"cs3sG4sC5sG5s0p5":4924,"cs3sG4sC4sG3s0p25":4925,"cs3sG4sC4sG3s1p0":4926,"cs2sB4sD4s1p0":4927,"cs3sC4sG3sG4s1p0":4928,"cs3sB4sD5sGw5s1p0":4929,"cs3sE5sE6sC6s0p25":4930,"cs3sE3sC4sE4s1q3":4931,"cs3sGw4sB4sD5s0p25":4932,"cs3sE5sC5sC6s1p0":4933,"cs2sGw3sGw2s0p25":4934,"cs2sE4sG4s2p5":4935,"cs3sD5sF5sA5s0p25":4936,"cs2sD4sF4s1p5":4937,"cs3sG5sE6sG6s1p0":4938,"cs3sB3sF4sG4s1p0":4939,"cs3sB3sF4sB4s0p75":4940,"cs3sG3sB3sG4s0p25":4941,"cs3sF3sB3sD4s1p0":4942,"cs3sE4sE3sC4s0p75":4943,"cs2sCw5sCw4s0p5":4944,"cs2sCw5sCw6s1q3":4945,"cs2sEt4sEt3s1q3":4946,"cs3sC4sEt4sG4s1p0":4947,"cs3sA5sC5sC6s0p25":4948,"cs3sG4sG5sBt4s0p25":4949,"cs3sG4sD4sB4s0p25":4950,"cs3sD5sB5sD6s0p5":4951,"cs3sB4sGw4sD4s0p5":4952,"cs3sB4sGw5sB5s0p5":4953,"cs3sE4sB4sE5s0p75":4954,"cs3sE4sB3sGw4s1p0":4955,"cs3sGw4sC5sEt5s0p25":4956,"cs3sG5sB4sD5s0p25":4957,"cs3sG5sB4sE5s0p5":4958,"cs3sD4sG4sB3s0p25":4959,"cs3sB4sG5sB5s0p25":4960,"cs3sB4sG5sB5s0p5":4961,"cs3sG4sBt4sEt5s0p25":4962,"cs3sC6sA5sF5s0p25":4963,"cs2sFw4sFw3s0p5":4964,"cs3sCw5sE5sCw6s0p25":4965,"cs4sE4sA4sC5sE5s0p5":4966,"cs3sA4sA5sC5s0p25":4967,"cs3sF5sA5sA4s0p25":4968,"cs3sD4sA3sF4s0p5":4969,"cs3sC3sE3sG3s0p25":4970,"cs3sB4sA4sEt4s0p5":4971,"cs3sF4sF3sB3s1q3":4972,"cs3sD4sGw4sB4s0p25":4973,"5sE5sC5sE5s0p25":4974,"cs6sE7sE":4975,"cs3sB5sG5sD5s0p25":4976,"cs3sA3sE4sA4s1q3":4977,"cs3sEt4sGw4sEt5s0p25":4978,"cs3sF5sB5sF6s0p5":4979,"2sFw2s0p5":4980,"cs3sG5sC6sE6s0p25":4981,"cs3sEt4sFw4sB4s1q3":4982,"cs3sA6sA5sF6s0p5":4983,"cs3sFw4sEt4sB4s1q3":4984,"cs3sG3sF4sG4s0p75":4985,"cs3sG3sG4sC4s1p0":4986,"cs4sB4sG4sE":4987,"cs3sF6sF5sD6s0p25":4988,"cs3sF6sF5sGw5s0p25":4989,"cs2sE2sE3s0p5":4990,"cs4sC6sG5sE5sC5s0p25":4991,"cs3sFw3sA3sE4s0p25":4992,"cs4sD5sF4sBt":4993,"cs5sG3sF":4994,"cs2sA5sCw6s1p0":4995,"cs3sBt4sE5sBt5s0p25":4996,"2sBt2s0p5":4997,"cs2sG5sBt5s1q3":4998,"cs3sFw5sA5sA4s0p25":4999,"6sA5sA6s1p5":5000,"cs3sD4sD5sG4s0p25":5001,"cs2sB2sG3s0p5":5002,"cs4sC4sE4sA":5003,"cs3sD5sGw5sB5s0p5":5004,"cs4sC5sA4sFw":5005,"cs3sBt4sF5sBt5s0p25":5006,"cs2sA1sA2s3p0":5007,"cs2sFw6sFw5s0p5":5008,"cs2sFw6sFw5s1p0":5009,"cs2sGw6sGw5s0p5":5010,"cs2sGw6sGw5s1p5":5011,"cs3sB5sEt5sEt6s0p25":5012,"cs3sGw5sGw6sE6s0p25":5013,"cs3sE5sC6sE6s1q3":5014,"cs4sC4sG3sE4sG4s0p5":5015,"cs3sB5sGw6sB6s0p25":5016,"cs3sF5sBt5sD6s2p0":5017,"cs4sC4sE4sG4sC5s2p0":5018,"cs3sBt3sD4sGw4s1p0":5019,"cs3sEt6sC6sC7s0p25":5020,"cs3sEt6sC6sGw5s0p25":5021,"cs4sF5sGw5sB":5022,"cs3sB5sF5sB4s0p25":5023,"cs3sD4sC4sB3s0p25":5024,"cs4sEt5sFw5sA":5025,"cs4sG4sG5sF":5026,"cs4sA5sE5sCw":5027,"cs2sC2sC3s1p5":5028,"cs2sF3sB3s0p75":5029,"cs2sF3sB2s1q3":5030,"cs4sG3sBt3sEt":5031,"cs3sBt5sG6sBt6s0p25":5032,"cs4sBt4sG4sE":5033,"cs3sC7sA6sF6s0p25":5034,"cs3sB3sA3sB3s0p25":5035,"cs3sB3sEt4sFw4s0p25":5036,"cs3sFw6sFw5sEt6s0p25":5037,"cs4sD5sA5sD":5038,"cs4sE6sA5sC6sE5s0p25":5039,"1sBt":5040,"cs3sE6sD6sB5s1p0":5041,"cs3sG3sEt4sG4s0p25":5042,"cs2sBt2sBt3s1q3":5043,"cs3sFw4sE4sFw4s0p25":5044,"cs4sCw6sE6sA":5045,"cs3sC3sFw3sBt3s0p25":5046,"cs4sD5sG4sG":5047,"cs4sB3sD4sG":5048,"cs4sF4sA4sD5sF5s1p5":5049,"cs3sC7sC6sE6s0p25":5050,"cs4sA5sG5sFw5sG5s0p25":5051,"cs4sB4sEt5sA5sB5s0p25":5052,"cs2sC3sG3s3p0":5053,"cs2sB3sA4s1p0":5054,"cs3sFw3sCw4sFw4s0p25":5055,"cs5sFw6sG":5056,"cs2sF2sF3s1p0":5057,"rs4p25":5058,"cs4sD3sFw3sC4sD4s0p25":5059,"cs4sF5sB5sD6sG6s0p5":5060,"cs3sF7sE7sF7s0p25":5061,"cs3sFw6sEt6sFw5s0p25":5062,"cs4sG4sBt4sCw5sG5s0p5":5063,"cs4sA5sE6sC6sA6s1p0":5064,"cs2sG3sBt3s3p0":5065,"cs4sBt4sEt5sG":5066,"cs2sA2sBt2s0p25":5067,"cs3sC7sEt6sC6s0p25":5068,"cs4sGw2sB2sE":5069,"8s0p5":5070,"cs5sB4sG":5071,"4s1q24":5072,"nsG2s0p75":5073,"nsG4s2p75":5074,"nsE5s2q3":5075,"nsE7s1p0":5076,"nsE3s2p5":5077,"nsC3s2q3":5078,"nsC7s2p0":5079,"nsC8s0p25":5080,"nsF5s2p5":5081,"nsF3s1p25":5082,"nsB2s1p5":5083,"nsB1s1p0":5084,"nsD2s0p5":5085,"nsD4s4p0":5086,"nsD8s0p25":5087,"nsA2s3p0":5088,"cs2sE6sA5s0p25":5089,"cs2sE4sCw5s1q3":5090,"cs2sE6sBt6s0p25":5091,"cs2sE4sGw3s0p25":5092,"cs2sE5sA5s0p75":5093,"cs2sE5sA4s1q3":5094,"cs2sE4sB4s1p5":5095,"cs2sE4sA3s1q3":5096,"cs2sE7sEt7s0p25":5097,"cs2sE5sG4s1q3":5098,"cs2sE5sEt5s1q3":5099,"cs2sE4sBt3s0p5":5100,"cs2sE5sG5s1p5":5101,"cs2sE6sGw5s0p5":5102,"cs2sE5sGw5s0p75":5103,"4sE5sCw":5104,"4sE3s0p75":5105,"4sE4sD4s0p25":5106,"4sE3s1p5":5107,"4sE4sCw4s0p25":5108,"4sE5s4q3":5109,"cs2sC5sF":5110,"cs2sC2sE":5111,"cs2sC3sG3s0p5":5112,"cs2sC3sF3s0p25":5113,"cs2sC8s":5114,"cs2sC4sD4s1p0":5115,"cs2sC3sB2s0p25":5116,"cs2sC4sA3s1p0":5117,"cs2sC4sA4s2p0":5118,"cs2sC4sFw3s0p5":5119,"cs2sC5sA4s0p75":5120,"cs2sC2sG2s0p5":5121,"cs2sC6sF5s1q3":5122,"cs2sC3sD3s1q3":5123,"4sC6s0p25":5124,"4sC4s3p0":5125,"4sC5s1p75":5126,"5sE6sB":5127,"5sE4s1p5":5128,"5sE5s1p5":5129,"cs2sB5sG5s1p0":5130,"cs2sB5sE5s0p5":5131,"cs2sB6sB5s1p0":5132,"cs2sB5sD6s1q3":5133,"cs2sB4sE4s1p5":5134,"cs2sB2sGw":5135,"cs2sB4sEt5s1q3":5136,"cs2sB2sCw3s0p25":5137,"4sB4sG":5138,"4sB4sFw4s0p25":5139,"4sG5s1p25":5140,"4sG4s1p75":5141,"nsGw5s3p0":5142,"cs2sG3sD4s1p0":5143,"cs2sG6sB6s0p25":5144,"cs2sG4sEt5s0p25":5145,"cs2sG4sF4s1p0":5146,"cs2sG6sEt6s0p25":5147,"cs2sG4sC4s0p5":5148,"cs2sG5sD6s0p5":5149,"cs2sG6sBt6s0p25":5150,"cs2sG6sC6s1q3":5151,"cs2sG6sB5s0p5":5152,"cs2sG4sD4s1q3":5153,"cs2sG5sB4s0p75":5154,"cs2sG3sF3s2p0":5155,"cs2sG3sBt3s1q3":5156,"cs2sG4sC5s4q3":5157,"cs2sD2sD":5158,"cs2sD3sG3s0p5":5159,"cs2sD4sA3s0p5":5160,"cs2sD6sBt5s0p25":5161,"cs2sD5sB5s1q3":5162,"cs2sD6sC6s0p5":5163,"cs2sD2sD3s0p5":5164,"cs2sD7sEt7s0p25":5165,"cs2sD6sF6s1p0":5166,"cs2sD5sFw4s0p5":5167,"cs2sD4sG3s0p75":5168,"cs2sD6sF5s1q3":5169,"cs2sD3sBt2s0p25":5170,"cs2sD3sEt3s1q3":5171,"cs2sA4sA4s0p25":5172,"cs2sA5sEt5s0p25":5173,"cs2sA5sD5s0p5":5174,"cs2sA4sC4s1p0":5175,"cs2sA3sC3s0p25":5176,"cs2sA3sE3s0p5":5177,"cs2sA6sC6s1q3":5178,"cs2sA3sF3s1p0":5179,"cs2sA6sD7s0p25":5180,"cs2sA5sFw5s1q3":5181,"cs2sA4sFw4s1p0":5182,"cs2sA3sEt4s1p0":5183,"cs2sA3sFw4s0p25":5184,"cs2sA5sC6s1p5":5185,"5sC5sG5s0p25":5186,"nsEt6s2p0":5187,"nsEt2s1p0":5188,"nsFw2s1p0":5189,"nsFw7s1p0":5190,"nsFw5s1q12":5191,"cs2sF4sD5s0p75":5192,"cs2sF4sG4s2p0":5193,"cs2sF4sB4s0p75":5194,"cs2sF3sD3s1p0":5195,"cs2sF4sGw4s2p0":5196,"cs2sF3sC3s1q3":5197,"cs2sF3sD4s2p0":5198,"cs2sF7sC7s1q3":5199,"4sA5s1p0":5200,"4sA4s2p5":5201,"4sD4sC":5202,"4sD4sA4s0p25":5203,"5sB4sG4s0p25":5204,"5sB4sD5s0p25":5205,"nsBt3s2q3":5206,"4sF4sE4s0p25":5207,"4sF4s3p0":5208,"4sF5s2q3":5209,"5sG5sC5s0p25":5210,"nsCw4s1p25":5211,"nsCw5s2q3":5212,"nsCw7s1p0":5213,"5sA4sFw":5214,"5sA5sFw5s0p25":5215,"5sA5sCw6s0p25":5216,"5sA4sE5s1p0":5217,"3sC4sCw4s0p25":5218,"3sC4s1p75":5219,"cs3sE3sBt":5220,"cs3sE3sCw":5221,"cs3sC5sC6sE5s0p25":5222,"5sD4sD5s0p25":5223,"5sF5sE5s0p25":5224,"5sF5sCw5s1p0":5225,"7s3p0":5226,"4sGw4sA4s0p25":5227,"cs2sGw5sC5s0p25":5228,"cs2sGw4sE4s0p5":5229,"cs2sGw4sE4s1p0":5230,"cs2sGw5sBt5s0p25":5231,"cs2sGw5sC6s0p5":5232,"cs2sGw5sE5s1q3":5233,"cs2sGw5sE5s0p5":5234,"cs2sGw5sF5s1q3":5235,"cs2sGw3sEt4s0p25":5236,"cs2sGw6sBt6s0p25":5237,"cs2sGw4sF5s1p0":5238,"cs2sGw4sD4s1q3":5239,"cs2sGw4sB3s1q3":5240,"cs2sGw2sF3s0p25":5241,"cs2sGw7sA7s0p25":5242,"cs2sGw5sB5s2p0":5243,"cs2sGw4sC5s2p5":5244,"3sE4sC":5245,"cs3sB4sCw":5246,"cs3sB6sFw":5247,"cs3sB7sA":5248,"cs3sB3sBt3sA3s0p25":5249,"3sB3sE4s0p25":5250,"3sB3s1p25":5251,"6sC5s0p25":5252,"6sC7s1p5":5253,"cs3sG4sGw":5254,"cs3sG6sD":5255,"cs3sG4sFw4sG4s0p25":5256,"3sG3sB3s0p25":5257,"3sG3sB3s0p5":5258,"cs2sEt5sA5s0p25":5259,"cs2sEt5sA4s0p25":5260,"cs2sEt3sC4s0p5":5261,"cs2sEt6sG5s0p25":5262,"cs2sEt3sE3s0p25":5263,"cs2sEt3sGw3s0p25":5264,"cs2sEt6sFw5s0p25":5265,"cs2sEt5sFw4s0p25":5266,"cs2sEt5sFw5s1p0":5267,"cs2sEt7sA6s0p25":5268,"cs2sEt4sBt3s0p25":5269,"cs2sEt3sC4s1p5":5270,"cs2sEt4sFw4s1p0":5271,"cs2sEt3sFw3s0p5":5272,"cs2sEt5sFw4s1q3":5273,"cs2sEt7sEt6s1q3":5274,"cs2sBt4sE4s0p25":5275,"cs2sBt3sCw":5276,"cs2sBt4sD5s0p5":5277,"cs2sBt4sG4s1p0":5278,"cs2sBt3sF4s0p5":5279,"cs2sBt3sG3s0p5":5280,"cs2sBt5sG5s1p0":5281,"cs2sBt3sEt4s0p25":5282,"cs2sBt5sD5s0p5":5283,"cs2sBt6sC6s1q3":5284,"cs2sBt2sG3s0p25":5285,"cs2sBt1sBt":5286,"cs3sA4sC5sE5s0p75":5287,"cs3sA3sGw3sA3s0p25":5288,"4sEt4sGw4s0p25":5289,"cs3sF5sEt":5290,"cs3sF6sCw":5291,"cs3sF4sG4sB":5292,"cs2sFw3sA":5293,"cs2sFw4sC5s0p5":5294,"cs2sFw5sD6s0p25":5295,"cs2sFw5sB5s1q3":5296,"cs2sFw3sD3s0p25":5297,"cs2sFw3sEt4s0p5":5298,"cs2sFw5sCw5s1q3":5299,"cs2sFw6sG6s1q3":5300,"cs2sFw2sFw3s0p25":5301,"6sB6s2p0":5302,"5sGw6s1p0":5303,"5sGw6s0p75":5304,"4sCw5sCw":5305,"cs2sCw5sC5s0p25":5306,"cs2sCw6sB5s0p25":5307,"cs2sCw4sBt4s0p5":5308,"cs2sCw3sD3s0p25":5309,"cs2sCw4sD4s1q3":5310,"cs3sD3sE":5311,"cs3sD3sD":5312,"cs3sD2sA":5313,"3sF4s1p5":5314,"6sG7s0p25":5315,"6sG6sB":5316,"5sEt6s1q3":5317,"3sA2s1q3":5318,"5sBt5sBt4s0p25":5319,"rs5p5":5320,"cs3sGw4sG":5321,"cs3sGw5sC6sC":5322,"cs4sE4sF4sE":5323,"cs4sE7sB6sGw":5324,"cs2sE5sE5s1q3":5325,"cs2sE5sE4s2p0":5326,"cs3sEt4sF":5327,"cs3sEt6sG":5328,"cs3sEt3sBt":5329,"cs3sFw6sBt":5330,"3sGw4s2p0":5331,"cs4sG2sB":5332,"cs4sG5sF5sD":5333,"cs4sG4sF4sE":5334,"cs4sC5sD":5335,"cs3sBt5sC":5336,"cs3sBt2sF":5337,"cs3sBt3sD4sF":5338,"cs4sA3sB":5339,"cs4sA7sCw":5340,"6sFw6sE6s0p25":5341,"cs4sD4sBt":5342,"cs4sD5sEt":5343,"6sEt6s1p0":5344,"6sEt6s2p0":5345,"6sEt6s1p5":5346,"cs2sE4sE5s3p0":5347,"3sBt3s2p0":5348,"cs3sCw7sE":5349,"3sEt3s1p0":5350,"3sEt4s1p5":5351,"3sEt3sG3s0p25":5352,"cs4sB4sC":5353,"cs4sB5sF":5354,"cs4sB3sF":5355,"cs4sB5sA5sGw":5356,"cs2sG4sG3s1q3":5357,"6sCw6sA":5358,"6sCw6s1p0":5359,"6sCw6sBt5s0p25":5360,"7sE7sE":5361,"6sBt6s1q3":5362,"6sBt5sFw6s0p25":5363,"cs4sF4sC":5364,"cs4sF6sD":5365,"cs4sF5sD5sB":5366,"cs4sF5sC6sEt":5367,"cs2sE6sE7s0p5":5368,"cs2sE6sE7s1q3":5369,"7sC7sE":5370,"cs2sA4sA3s1q3":5371,"cs3sC4sE4sC5s1p0":5372,"cs3sC4sE4sFw4s0p25":5373,"cs3sC4sE4sC5s1p5":5374,"cs2sG5sG6s1q3":5375,"cs2sF5sF4s1q3":5376,"2sD3sF":5377,"cs2sF4sF3s1q3":5378,"cs4sGw3sF":5379,"cs4sGw7sF":5380,"cs4sGw5sEt5sC":5381,"cs4sGw5sB5sE":5382,"cs4sEt4sB":5383,"cs4sEt6sGw":5384,"cs4sEt7sB":5385,"cs4sEt6sC6sA":5386,"cs2sB4sB3s1p0":5387,"cs2sB4sB5s0p75":5388,"7sA6sC7s0p25":5389,"cs4sBt4sA":5390,"cs4sBt4sCw":5391,"cs4sBt6sBt":5392,"cs4sBt6sC7sC":5393,"cs4sBt7sC8sC":5394,"cs2sA5sA6s1p5":5395,"cs3sG3sC4sC":5396,"cs3sG3sC4sG4s0p75":5397,"cs3sG3sC4sE4s1p5":5398,"cs3sE4sC4sA4s0p5":5399,"cs3sE4sC4sA3s0p25":5400,"cs3sE4sC5sC6s1p0":5401,"cs3sE4sC5sG4s1p0":5402,"cs3sE4sC4sFw3s0p25":5403,"cs4sFw4sC":5404,"cs2sD5sD4s1p5":5405,"cs2sD6sD5s1q3":5406,"cs2sE4sC5s0p75":5407,"cs2sE4sC4s2q3":5408,"7sF6s0p5":5409,"cs3sE4sG4sE5s1q3":5410,"cs3sA4sC5sFw5s0p25":5411,"cs3sA4sC5sEt5s0p25":5412,"cs3sA4sC5sA5s0p5":5413,"cs2sGw4sGw3s1q3":5414,"1s4p0":5415,"cs2sA3sA4s1p5":5416,"cs3sD4sF4sA4s0p25":5417,"cs3sD4sF4sBt4s0p5":5418,"cs3sG4sE4sC5s0p25":5419,"cs3sG4sE5sG5s1q3":5420,"cs2sF6sF5s1p5":5421,"rs35":5422,"cs2sEt5sEt4s1q3":5423,"cs3sC4sF4sA3s1p0":5424,"cs3sF4sA4sC5s0p25":5425,"cs3sA3sC4sD4s0p25":5426,"cs3sA3sC4sA4s0p5":5427,"cs2sC4sE3s1p5":5428,"7sGw6sGw":5429,"cs3sB3sD4sF4s1p0":5430,"cs2sFw5sFw6s0p75":5431,"cs3sC4sA4sC5s1p0":5432,"cs3sC4sA4sA3s1p0":5433,"cs3sG4sB4sE5s0p25":5434,"cs3sG4sB4sE5s1p0":5435,"cs3sG4sB4sF5s1p0":5436,"cs3sG4sB4sG5s1p0":5437,"cs2sBt3sBt4s0p75":5438,"cs3sF4sD4sA3s0p25":5439,"cs3sF4sGw4sB3s0p25":5440,"cs3sF4sGw4sCw5s0p25":5441,"7sFw6sFw":5442,"7sFw7s1q3":5443,"cs3sC5sA4sF4s0p5":5444,"cs3sE4sA4sC5s0p75":5445,"2sF2s1q3":5446,"cs2sB5sB4s1p5":5447,"cs3sE3sG2sC3s0p25":5448,"cs3sA4sE4sCw4s0p25":5449,"cs3sA4sE4sC4s2p0":5450,"cs3sA4sE4sE5s1p5":5451,"cs3sG4sC5sG5s0p75":5452,"cs3sG3sE4sG4s0p5":5453,"cs3sG3sE3sC4s0p5":5454,"cs3sC4sG4sC5s1p0":5455,"cs3sC4sG3sG4s0p25":5456,"cs3sC4sG3sE3s1p0":5457,"cs3sC5sG4sB4s0p25":5458,"cs3sC5sG4sE4s0p5":5459,"cs3sC5sG4sG5s0p25":5460,"cs2sBt4sBt3s1p0":5461,"cs2sBt4sBt5s0p75":5462,"cs3sD4sB4sD5s0p5":5463,"cs3sD4sB3sB4s0p25":5464,"cs3sE5sE6sG5s0p25":5465,"cs3sE3sC4sBt4s1p0":5466,"cs3sE3sC3sG2s1p0":5467,"cs3sE5sC5sE":5468,"cs3sE5sC6sE6s0p25":5469,"cs3sF4sB4sGw4s0p25":5470,"cs3sA4sF4sC4s0p5":5471,"cs2sB3sG3s1q3":5472,"cs3sG5sE6sG6s0p5":5473,"cs3sF4sC5sF5s0p25":5474,"cs3sF4sC5sA4s0p5":5475,"cs3sF4sC5sD5s2q3":5476,"cs2sD4sD5s2p0":5477,"cs3sB3sF4sG4s1q3":5478,"cs3sG3sB2sD3s2p0":5479,"cs3sF3sB3sD4s0p5":5480,"7sBt6s1p0":5481,"cs3sE4sE5sB4s0p25":5482,"cs3sE4sGw4sE5s0p25":5483,"cs2sCw5sCw6s2p0":5484,"cs2sEt4sEt3s0p25":5485,"cs3sC4sEt4sC5s0p25":5486,"cs3sC4sEt4sC5s1p0":5487,"cs3sC4sEt4sGw4s0p75":5488,"cs3sA5sC6sA6s1p0":5489,"cs3sG4sG3sC4s0p25":5490,"cs3sG4sG3sB3s0p25":5491,"cs3sG4sG3sC4s1p0":5492,"cs4sE4sG4sE":5493,"cs4sE4sG4sC5sE5s0p5":5494,"cs3sC4sC5sF4s0p25":5495,"cs3sG4sD4sG3s0p25":5496,"cs3sG4sD5sD4s0p25":5497,"cs2sC7sC6s1p0":5498,"cs3sC6sE6sC7s0p25":5499,"cs3sC6sE6sE5s0p25":5500,"4sE4sG4sC5s0p25":5501,"cs3sB4sGw4sGw5s1p0":5502,"cs3sE4sB4sE5s1p0":5503,"cs3sC5sC4sE4s0p5":5504,"cs3sC5sC4sGw4s0p25":5505,"cs2sCw6sCw5s1p0":5506,"cs3sE5sB4sB5s0p25":5507,"cs3sE6sGw5sGw6s0p25":5508,"cs3sC5sD5sE5s0p25":5509,"cs3sC5sD5sC5s1q3":5510,"cs3sGw4sC5sGw5s0p25":5511,"cs3sF5sD5sB5s0p25":5512,"4sD5sF4s1p0":5513,"cs3sD4sG4sD5s0p25":5514,"cs3sE6sE5sGw5s0p5":5515,"cs3sB4sG5sB5s0p75":5516,"cs3sG4sBt4sCw5s0p25":5517,"cs3sC6sA5sC5s0p25":5518,"cs3sB3sE4sGw4s1p0":5519,"cs3sE5sA5sE6s0p25":5520,"cs3sE5sA5sC6s1p0":5521,"cs4sC5sE5sC":5522,"cs3sE5sGw4sB4s0p25":5523,"cs3sE5sGw5sE6s1q3":5524,"cs2sFw3sFw4s2p0":5525,"cs2sC5sEt5s2p0":5526,"cs3sA4sB4sA4s1q3":5527,"cs3sGw3sB3sF4s0p25":5528,"cs3sE6sC6sA5s0p25":5529,"cs3sE6sC6sE5s0p25":5530,"cs4sE4sA4sC5sE5s0p25":5531,"cs3sD5sG4sC5s0p25":5532,"cs3sC6sC7sA":5533,"cs3sC6sC5sE5s0p5":5534,"cs4sD4sF4sA":5535,"cs3sD5sD6sB5s0p25":5536,"cs3sD5sD4sB4s0p5":5537,"cs2sA2sA3s1p0":5538,"cs3sA4sA5sFw5s0p25":5539,"cs3sA5sF5sD5s0p5":5540,"cs3sF5sA5sD6s0p25":5541,"cs3sD5sC5sB4s0p25":5542,"cs2sE3sE4s3p0":5543,"cs3sC3sE3sC4s1p5":5544,"cs3sC3sE3sG3s0p75":5545,"cs3sB4sA4sFw4s0p5":5546,"cs3sF4sF5sD5s0p25":5547,"cs3sD4sGw4sB4s1p0":5548,"cs3sGw4sE5sGw5s0p25":5549,"cs3sGw3sC3sFw3s0p25":5550,"cs4sC4sG4sE4sG":5551,"cs3sCw4sE4sA4s1p0":5552,"cs3sCw4sE4sCw5s1q3":5553,"cs3sCw4sF4sGw4s0p25":5554,"4sC5sEt4s0p25":5555,"cs2sC4sF4s0p75":5556,"cs3sB5sG6sB6s0p25":5557,"cs3sA3sE4sA4s1p0":5558,"cs3sA3sE3sC4s1p0":5559,"cs3sG4sF4sD4s0p5":5560,"cs3sA4sD5sF5s1p0":5561,"cs3sFw4sC5sD5s0p25":5562,"cs3sFw4sC5sD5s0p75":5563,"cs3sG5sC6sG6s0p25":5564,"cs3sF5sGw5sCw6s0p25":5565,"cs2sF3sF4s1q3":5566,"cs3sA6sA5sF6s0p25":5567,"cs3sD6sF6sD7s0p25":5568,"nsA1s3p0":5569,"cs3sE4sCw4sA3s0p5":5570,"cs3sE4sCw5sE5s1p0":5571,"cs3sG3sG4sC4s0p25":5572,"cs2sD7sD6s1q3":5573,"cs2sD7sD6s1p0":5574,"cs2sE2sE3s0p25":5575,"cs3sEt5sC5sG4s0p5":5576,"cs4sD5sF5sG5sB5s0p25":5577,"cs3sE6sG5sE5s0p25":5578,"cs2sG5sBt4s0p5":5579,"cs2sG5sBt4s1q3":5580,"cs3sC5sEt5sC6s1p0":5581,"cs3sG6sE6sG5s0p5":5582,"cs3sG6sE6sG5s1p0":5583,"cs3sG6sE6sG5s1p5":5584,"cs3sG3sD4sG4s1p0":5585,"cs3sG6sG5sE6s0p5":5586,"4s5q6":5587,"cs2sG4sBt3s1p0":5588,"cs3sFw5sA5sFw6s0p25":5589,"cs3sA3sD4sF4s0p25":5590,"cs4sE5sGw4sC":5591,"cs3sEt5sFw4sFw5s0p25":5592,"cs5sF3sF4sG":5593,"cs2sA4sF4s2p0":5594,"4sA4sC5sF":5595,"cs3sB5sD6sD5s0p25":5596,"cs3sE3sA3sC4s0p5":5597,"cs3sF3sA3sD4s1p0":5598,"cs3sD6sD5sF5s0p25":5599,"cs3sFw5sEt5sC5s0p25":5600,"cs3sFw5sEt5sFw4s0p25":5601,"cs3sB5sB4sG5s0p25":5602,"cs3sB5sB4sGw5s0p25":5603,"cs3sCw5sA4sE4s0p25":5604,"cs3sCw5sA5sCw6s0p5":5605,"cs2sD5sBt4s0p5":5606,"cs2sD5sBt4s0p75":5607,"cs4sG4sE5sD":5608,"cs2sE3sG3s1p5":5609,"cs2sG2sG3s1p0":5610,"cs3sFw5sFw4sEt5s0p25":5611,"5sC6sEt6sA":5612,"cs3sEt4sA4sC4s0p25":5613,"cs4sG5sE6sC":5614,"cs4sC5sA4sE":5615,"cs4sC6sE6sG":5616,"cs3sCw6sE6sE5s0p25":5617,"cs2sA1sA2s0p25":5618,"cs2sA1sA2s1p5":5619,"5s5q3":5620,"cs2sF4sD4s1p5":5621,"cs2sF4sD5s2p0":5622,"cs2sGw6sGw5s1q3":5623,"cs3sC3sF3sGw3s0p25":5624,"cs3sA4sFw5sA5s0p25":5625,"cs2sC7sE7s1p0":5626,"cs3sE3sE4sC4s0p5":5627,"cs3sE5sC6sE6s1p0":5628,"cs3sD3sB3sD4s0p5":5629,"nsG3s2p75":5630,"cs3sA5sFw6sA6s0p25":5631,"cs3sBt3sF4sBt4s0p5":5632,"cs4sF5sG4sC5sE5s0p25":5633,"cs3sB5sGw5sC6s0p25":5634,"cs3sF3sD4sA4s1p0":5635,"cs4sC4sE4sG4sC5s0p25":5636,"cs4sA4sB4sFw":5637,"cs3sC4sA3sA4s1p0":5638,"cs3sE5sD5sB4s0p5":5639,"cs4sE5sCw6sBt5sFw6s0p25":5640,"cs3sG3sCw4sEt4s0p25":5641,"cs3sGw5sF5sF6s0p25":5642,"cs3sEt6sFw5sFw6s0p25":5643,"cs3sE6sA6sE7s0p5":5644,"cs2sCw4sCw3s0p25":5645,"cs2sCw4sCw3s0p5":5646,"cs3sEt5sA4sFw4s0p25":5647,"cs3sD6sG5sB5s0p5":5648,"cs3sGw3sCw3sBt3s0p25":5649,"cs3sBt3sEt4sBt4s0p25":5650,"cs4sD5sE5sD5sC5s0p25":5651,"cs3sA5sB5sA5s0p25":5652,"cs3sD4sFw3sB":5653,"cs4sC4sA3sF":5654,"cs3sBt3sC4sE4s0p5":5655,"cs2sE5sC5s2p0":5656,"cs4sC4sEt4sGw4sC5s0p25":5657,"cs3sBt6sBt5sFw6s0p25":5658,"cs3sC6sGw6sC7s0p25":5659,"cs3sD3sA3sC4s0p5":5660,"cs3sD3sA3sC4s0p75":5661,"cs3sB6sB5sG6s0p5":5662,"6sC7sC6s0p25":5663,"6sC7sC6s1p0":5664,"cs4sE6sA6sCw7sE7s0p25":5665,"cs3sFw4sGw3sGw4s0p25":5666,"cs4sF3sG3sB3sD4s1p0":5667,"cs4sG4sBt4sE5sG5s0p25":5668,"cs3sF6sBt6sD7s2p0":5669,"cs4sEt4sG4sBt":5670,"cs4sBt4sC5sBt4sC5s0p25":5671,"cs2sD6sFw5s1q3":5672,"cs3sC4sD4sC4s0p25":5673,"cs3sC3sFw3sC4s0p25":5674,"cs3sFw5sBt5sFw":5675,"cs3sBt4sEt4sG4s0p25":5676,"cs4sFw5sA5sC":5677,"cs4sFw5sA5sD":5678,"cs4sE5sGw5sD6sE6s1p0":5679,"cs2sG6sG5s1p5":5680,"cs3sEt5sG4sD5s0p25":5681,"cs3sEt3sFw3sB3s0p25":5682,"cs4sE5sC5sG4sE4s0p25":5683,"cs4sA6sF6sD":5684,"cs10s":5685,"cs3sB6sGw6sB5s0p25":5686,"cs3sG5sF3sD4s0p75":5687,"cs4sE6sB5sGw5sE5s0p25":5688,"cs4sE6sB5sGw5sE5s0p5":5689,"cs4sB3sE4sGw":5690,"3s5q3":5691,"cs2sC3sA3s2p0":5692,"cs2sC6sEt5s1q3":5693,"cs3sFw4sG4sA4s0p25":5694,"cs4sA3sC4sE4sA4s0p25":5695,"cs4sGw4sB4sB":5696,"cs4sCw6sA5sE":5697,"cs3sEt5sF5sC5s0p25":5698,"6sCw7sCw6s0p25":5699,"cs4sBt4sE5sG5sBt5s0p25":5700,"cs4sE5sA5sC6sE6s0p75":5701,"cs4sC6sG5sE5sC5s1p0":5702,"cs2sE3sA2s3p0":5703,"cs2sF5sA5s4q3":5704,"cs3sC6sB5sA5s0p25":5705,"cs3sG5sEt6sG6s0p25":5706,"cs3sA2sE3sCw4s0p5":5707,"cs3sA2sF3sD4s0p25":5708,"cs3sF6sE6sC6s1q3":5709,"cs3sD6sFw5sC6s0p25":5710,"cs4sF4sG4sB4sD5s0p25":5711,"cs4sCw4sCw3sF":5712,"cs8sEt":5713,"cs6sC6sE":5714,"cs3sG3sFw3sG3s0p25":5715,"cs3sA2sD3sB3s0p25":5716,"cs3sD7sB6sD6s0p25":5717,"cs3sEt5sCw5sEt5s0p25":5718,"cs4sC3sE3sG3sC4s0p25":5719,"cs4sC3sEt3sGw3sC4s0p75":5720,"cs3sGw6sC6sGw5s0p25":5721,"cs4sB5sG5sE5sC5s0p5":5722,"cs4sF3sA3sC4sEt4s0p25":5723,"cs4sCw5sGw4sCw":5724,"cs4sC5sE5sE4sA4s0p5":5725,"cs5sF4sG4sB4sD5sG5s0p25":5726,"cs4sD5sC5sG4sB4s0p25":5727,"cs2sC4sFw3s1q3":5728,"cs3sF5sFw5sCw5s0p25":5729,"cs4sG3sA3sE":5730,"cs4sC5sD5sC5sD5s0p25":5731,"cs3sBt2sEt3sF3s0p5":5732,"cs4sBt2sC3sE3sG3s0p5":5733,"cs3sA4sC5sA3s1q3":5734,"cs3sF4sC5sGw4s2q3":5735,"cs3sD7sC7sB6s0p25":5736,"cs3sCw3sGw3sCw4s0p25":5737,"cs4sCw5sBt4sG4sG5s0p5":5738,"cs4sFw6sEt6sFw6sEt6s0p25":5739,"cs6sE7sE6sCw":5740,"cs3sD2sA2sFw2s0p5":5741,"cs5sF3sF4sG3sB3sD4s0p75":5742,"125":5743,"19q12":5744,"37q12":5745,"Et":5746,"s0p125":5747,"cs6sFw":5748,"cs7sE":5749,"cs6sBt":5750,"cs7sB":5751,"cs7sF":5752,"2s1p25":5753,"2s1q12":5754,"3s3p75":5755,"nsG4s2p5":5756,"nsG5s4p0":5757,"nsG4s4q3":5758,"nsG3s1p75":5759,"nsG4s4":5760,"rs6p0":5761,"nsE5s4q3":5762,"nsC5s1q12":5763,"nsC4s4p0":5764,"nsC5s1q6":5765,"nsC4s2p25":5766,"nsC6s2q3":5767,"nsC5s2p75":5768,"6s3p5":5769,"nsF5s2q3":5770,"nsB5s1p75":5771,"nsD4s1q12":5772,"nsA7s0p5":5773,"nsA3s2q3":5774,"nsA4s2p75":5775,"nsA4s3p5":5776,"nsA2s2p5":5777,"cs2sE3sB":5778,"cs2sE4sD5s0p25":5779,"cs2sE6sC7s0p25":5780,"cs2sE5sBt5s0p25":5781,"cs2sE6sB6s0p25":5782,"cs2sE6sGw6s0p25":5783,"cs2sE4sG3s0p25":5784,"cs2sE4sA4s1q3":5785,"cs2sE4sCw5s0p5":5786,"cs2sE4sBt4s0p5":5787,"cs2sE4sBt4s1p0":5788,"cs2sE6sC6s1q3":5789,"cs2sE4sFw4s1q3":5790,"cs2sE4sB3s1p0":5791,"cs2sE6sA6s1q3":5792,"cs2sE6sC7s0p5":5793,"cs2sE5sG5s2p0":5794,"cs2sE4sBt3s1p0":5795,"cs2sE5sCw5s1p0":5796,"4sE3s1q3":5797,"4sE4sGw4s0p25":5798,"4sE5s3p0":5799,"4sE5s1p75":5800,"cs2sC5sD":5801,"cs2sC6sA":5802,"cs2sC4sB4s0p25":5803,"cs2sC5sGw5s0p25":5804,"cs2sC4sD4s0p5":5805,"cs2sC6sG5s0p5":5806,"cs2sC4sG4s0p75":5807,"cs2sC3sC4s1q3":5808,"cs2sC4sB3s1q3":5809,"cs2sC6sG5s1p0":5810,"cs2sC2sC3s0p5":5811,"cs2sC4sEt4s0p75":5812,"cs2sC3sEt3s0p5":5813,"cs2sC5sBt4s1q3":5814,"4sC5sCw":5815,"4sC4s2q3":5816,"5sE5sB5s0p25":5817,"5sE6s3p0":5818,"5sE6sE5s0p25":5819,"cs2sB5sGw":5820,"cs2sB3sFw":5821,"cs2sB4sBt4s0p25":5822,"cs2sB5sF5s0p5":5823,"cs2sB4sF4s1q3":5824,"cs2sB6sCw7s0p25":5825,"cs2sB6sF6s1q3":5826,"cs2sB4sA5s0p25":5827,"cs2sB4sE5s0p75":5828,"cs2sB3sFw4s0p25":5829,"cs2sB5sBt5s1q3":5830,"cs2sB4sGw5s0p5":5831,"cs2sB5sG6s1p0":5832,"cs2sB6sD7s0p5":5833,"4sB5s0p75":5834,"4sB3sD":5835,"4sG3s3p0":5836,"4sG4s2p5":5837,"4sG4s4p0":5838,"nsGw3s2q3":5839,"nsGw3s2p5":5840,"nsGw2s1p5":5841,"nsGw5s2p25":5842,"cs2sG6sE":5843,"cs2sG6sG6s0p25":5844,"cs2sG5sBt4s0p25":5845,"cs2sG4sD4s1p0":5846,"cs2sG5sE6s0p5":5847,"cs2sG4sCw4s1q3":5848,"cs2sG3sB3s1q3":5849,"cs2sG4sE4s1p5":5850,"cs2sG4sB4s2p0":5851,"cs2sG7sG6s0p25":5852,"cs2sG4sC4s0p75":5853,"cs2sG4sF4s1p5":5854,"cs2sG2sB2s0p5":5855,"cs2sG5sCw6s2p0":5856,"cs2sG3sCw3s1q3":5857,"cs2sG2sB2s1p0":5858,"cs2sG3sF3s0p75":5859,"cs2sG2sD2s0p5":5860,"cs2sD5sG":5861,"cs2sD4sFw":5862,"cs2sD6sG6s0p25":5863,"cs2sD4sCw4s0p25":5864,"cs2sD5sBt5s0p25":5865,"cs2sD3sGw3s0p25":5866,"cs2sD6sCw6s0p25":5867,"cs2sD2sD3s0p25":5868,"cs2sD5sC6s1q3":5869,"cs2sD6sE5s0p25":5870,"cs2sD3sE3s0p5":5871,"cs2sD5sGw5s1p0":5872,"cs2sD4sA4s0p75":5873,"cs2sD7sA6s0p25":5874,"cs2sD4sBt3s0p25":5875,"cs2sD5sFw5s1q3":5876,"cs2sD5sG5s0p75":5877,"cs2sD5sA4s1q3":5878,"cs2sD6sB6s0p5":5879,"cs2sD5sG4s1q3":5880,"cs2sD7sF6s0p25":5881,"cs2sD4sBt3s0p5":5882,"cs2sD7sCw7s0p25":5883,"cs2sD5sB4s0p75":5884,"cs2sD3sF3s2p0":5885,"cs2sD4sA3s0p75":5886,"cs2sA5sB4s0p25":5887,"cs2sA5sC5s1p0":5888,"cs2sA3sE4s1p0":5889,"cs2sA2sD3s0p25":5890,"cs2sA5sFw5s1p0":5891,"cs2sA7sA6s0p25":5892,"cs2sA4sC5s2p0":5893,"cs2sA5sD6s1q3":5894,"cs2sA6sA5s1p5":5895,"5sC4s1p0":5896,"5sC4s2p0":5897,"5sC5sA5s0p25":5898,"5sC5sA4s0p25":5899,"5sC5s2q3":5900,"nsEt4s2q3":5901,"nsEt5s1p75":5902,"cs2sF4sC5s1q3":5903,"cs2sF4sB4s1q3":5904,"cs2sF5sC5s1p0":5905,"cs2sF4sCw5s0p5":5906,"cs2sF5sD6s1p0":5907,"cs2sF5sGw5s1q3":5908,"cs2sF3sC4s1p5":5909,"cs2sF5sA4s1q3":5910,"cs2sF4sCw4s0p5":5911,"cs2sF2sD3s1p0":5912,"cs2sF5sA5s1p5":5913,"cs2sF5sCw5s0p5":5914,"cs2sF3sCw3s0p25":5915,"cs2sF2sF3s0p25":5916,"cs2sF5sD5s0p75":5917,"cs2sF3sG3s2p0":5918,"cs2sF7sA7s1q3":5919,"cs2sF5sGw4s1p5":5920,"4sA4sE":5921,"4sA3s2p0":5922,"4sA4sCw5s0p25":5923,"4sA4s1p75":5924,"4sA4sC5s1q3":5925,"4sD5sE":5926,"4sD5sC":5927,"4sD5sB":5928,"4sD4sE4s0p25":5929,"4sD5s1p75":5930,"5sB4sC5s0p25":5931,"5sB5sGw5s0p25":5932,"5sB6sB5s0p25":5933,"5sB4s1p25":5934,"nsBt2s0p75":5935,"nsBt3s1p75":5936,"4sF4s2q3":5937,"5sG5sGw":5938,"5sG4s1p5":5939,"5sG4sE4s0p25":5940,"5sG5s2q3":5941,"nsCw4s1p75":5942,"5sA6s0p5":5943,"5sA4s2p0":5944,"5sA5s1q6":5945,"5sA5sEt6s0p25":5946,"3sC5s0p25":5947,"cs3sE7sC7sG6s0p5":5948,"cs3sC5sBt":5949,"5sD4s1q3":5950,"5sD5sG":5951,"5sD6sD":5952,"5sD6sB5s0p25":5953,"5sD6s1p5":5954,"5sD5s1q12":5955,"5sF5sGw":5956,"5sF5sD5s0p25":5957,"5sF5sB4s1p0":5958,"6sE6sE":5959,"6sE7s1q3":5960,"6sE5s1q12":5961,"4sGw4sA":5962,"cs2sGw3sE3s0p25":5963,"cs2sGw3sE4s1p0":5964,"cs2sGw3sF3s0p5":5965,"cs2sGw4sF5s0p5":5966,"cs2sGw6sC6s1q3":5967,"cs2sGw4sFw4s1q3":5968,"cs2sGw5sD6s1q3":5969,"cs2sGw5sEt5s1q3":5970,"cs2sGw5sEt5s1p0":5971,"cs2sGw3sE4s1q3":5972,"3sE4s1p25":5973,"cs3sB6sC":5974,"cs3sB5sA5sB5s0p25":5975,"cs3sB6sG6sD6s0p25":5976,"6sC6s2p0":5977,"cs3sG4sFw":5978,"cs3sG7sG":5979,"cs3sG6sD6sB5s0p25":5980,"3sG4s0p75":5981,"3sG4s1p5":5982,"3sG4s3p0":5983,"3sG3sCw":5984,"3sG3sA3s0p25":5985,"cs2sEt5sF5s0p25":5986,"cs2sEt4sF4s0p5":5987,"cs2sEt5sA5s0p5":5988,"cs2sEt4sA3s0p25":5989,"cs2sEt4sGw4s0p5":5990,"cs2sEt3sG3s1p0":5991,"cs2sEt4sG4s1q3":5992,"cs2sEt6sGw6s0p25":5993,"cs2sEt5sC5s1q3":5994,"cs2sEt3sGw3s0p5":5995,"cs2sEt5sFw5s0p5":5996,"cs2sEt6sC6s1q3":5997,"cs2sEt3sB2s0p25":5998,"cs2sEt6sG5s1q3":5999,"cs2sEt4sA3s1q3":6000,"cs2sEt3sA2s1q3":6001,"cs2sBt5sA5s0p25":6002,"cs2sBt5sD5s0p25":6003,"cs2sBt4sC5s1p0":6004,"cs2sBt6sF6s0p25":6005,"cs2sBt4sF5s0p25":6006,"cs2sBt4sD4s0p5":6007,"cs2sBt4sG5s0p25":6008,"cs2sBt6sCw6s0p25":6009,"cs2sBt5sB5s1q3":6010,"cs2sBt4sCw5s1p0":6011,"cs2sBt3sE3s1q3":6012,"cs2sBt6sG6s1q3":6013,"cs2sBt3sD4s0p75":6014,"cs2sBt3sD4s1q3":6015,"cs2sBt6sBt5s1p0":6016,"cs3sA4sBt":6017,"cs3sA6sD":6018,"cs3sA6sEt":6019,"cs3sA4sD5sF4s0p5":6020,"4sEt4s2p0":6021,"4sEt5s2q3":6022,"cs3sF6sC6sA5s0p25":6023,"cs2sFw5sC5s0p25":6024,"cs2sFw6sF6s0p25":6025,"cs2sFw4sCw5s0p25":6026,"cs2sFw6sC7s0p25":6027,"cs2sFw5sC5s0p5":6028,"cs2sFw4sBt4s1p0":6029,"cs2sFw3sC3s0p25":6030,"cs2sFw6sB5s1q3":6031,"cs2sFw4sA4s0p75":6032,"cs2sFw5sA4s1q3":6033,"cs2sFw4sA3s1q3":6034,"cs2sFw7sEt7s0p25":6035,"cs2sFw3sA3s1q3":6036,"cs2sFw3sA2s0p25":6037,"cs2sFw3sG3s1q3":6038,"6sB5sA5s0p25":6039,"6sB6s1q12":6040,"6sB6sF7s0p25":6041,"6sB7sGw7sB6s0p25":6042,"4sBt4s1p25":6043,"5sGw4s2p0":6044,"5sGw5sGw4s0p25":6045,"4sCw4s2p0":6046,"4sCw4sE4s0p25":6047,"4sCw4sD4s0p25":6048,"4sCw4sFw4s0p25":6049,"4sCw5s3p0":6050,"4sFw4sB4s0p25":6051,"4sFw4s2p5":6052,"cs2sCw5sB4s0p25":6053,"cs2sCw4sG4s0p5":6054,"cs2sCw6sFw5s0p25":6055,"cs2sCw7sA6s0p25":6056,"cs2sCw4sFw4s1p0":6057,"cs2sCw6sG5s1q3":6058,"cs2sCw7sBt6s0p25":6059,"cs2sCw7sA6s1q3":6060,"cs2sCw5sBt5s1p0":6061,"cs2sCw5sE5s2p0":6062,"cs2sCw4sF4s1p25":6063,"rs29q12":6064,"cs3sD5sCw":6065,"cs3sD3sFw":6066,"cs3sD7sA":6067,"5sFw4s0p75":6068,"5sFw6sBt":6069,"5sFw5sB5s1p0":6070,"6sD6sE6s0p25":6071,"6sD5sD6s0p25":6072,"6sD7sFw":6073,"6sG5sD":6074,"6sG6sD":6075,"6sG6s1p5":6076,"5sEt4s0p75":6077,"5sEt5sE5s0p25":6078,"5sEt6s2p0":6079,"6sF6sD":6080,"5sBt5s1p5":6081,"5sBt5sCw6s0p25":6082,"5sCw6sF6s0p25":6083,"5sCw5sBt4s0p25":6084,"cs3sGw5sFw":6085,"cs3sGw3sGw":6086,"cs4sE7sE":6087,"cs4sE3sFw":6088,"cs4sE3sA3sC":6089,"cs4sE3sE4sC":6090,"cs2sE5sE6s0p75":6091,"cs3sEt4sCw":6092,"cs3sEt3sEt":6093,"cs3sEt6sCw":6094,"cs3sEt7sC":6095,"cs3sFw6sD":6096,"cs3sFw6sEt6sFw":6097,"cs4sG5sA":6098,"cs4sG4sCw":6099,"cs4sG3sCw":6100,"cs4sG6sBt":6101,"cs4sG5sB4sG":6102,"cs4sG5sCw6sE":6103,"cs4sG2sCw":6104,"cs4sG3sC4sEt":6105,"cs4sG5sBt4sE":6106,"6sGw5s1p5":6107,"cs4sC3sB":6108,"cs4sC6sB":6109,"cs4sC6sFw":6110,"cs4sC6sEt":6111,"cs4sC7sC":6112,"cs4sC7sGw":6113,"cs4sC5sC6sEt":6114,"cs3sBt3sA":6115,"cs3sBt2sD":6116,"cs3sBt5sBt4sG":6117,"cs4sA5sC":6118,"cs4sA3sF":6119,"cs4sA5sC6sEt":6120,"cs4sA4sF4sD":6121,"cs4sA7sE7sCw":6122,"cs4sA3sG3sCw":6123,"6sFw5s0p75":6124,"cs4sD5sBt":6125,"cs4sD3sGw":6126,"cs4sD4sD5sF":6127,"cs4sD3sB3sD":6128,"cs4sD4sA4sFw":6129,"6sEt5sF":6130,"3sBt3sC4s0p25":6131,"cs3sCw6sBt":6132,"cs4sB7sB":6133,"cs4sB4sA4sFw":6134,"6sCw5s0p25":6135,"6sCw6sA5s0p5":6136,"7sE7s0p5":6137,"7sE7sB6s0p25":6138,"6sBt5sG5sF":6139,"3sFw4s1p0":6140,"cs4sF6sA":6141,"cs4sF4sC5sEt":6142,"cs4sF4sB4sD":6143,"cs4sF3sC4sEt":6144,"cs2sE6sE5s0p75":6145,"cs3sC4sE4sGw4s0p25":6146,"cs3sC4sE4sGw4s1p0":6147,"cs3sC4sE3sE4s0p75":6148,"cs3sC4sE3sE4s2p0":6149,"cs2sG5sG4s0p75":6150,"cs2sG5sG6s1p5":6151,"cs2sF5sF4s2p0":6152,"cs2sF5sF6s1p5":6153,"cs2sC6sC7s1q3":6154,"cs2sC6sC7s1p0":6155,"rs10q3":6156,"cs2sF4sF3s1p0":6157,"cs2sC5sC4s2p0":6158,"4sC5sE4s0p25":6159,"cs4sGw5sB":6160,"cs4sGw3sG":6161,"cs4sGw6sB":6162,"cs4sGw3sC4sEt":6163,"cs2sG3sG4s1p75":6164,"cs4sEt6sC":6165,"cs4sBt4sD":6166,"cs4sBt5sCw":6167,"cs4sBt4sD4sF":6168,"cs3sE4sC4sC5s0p5":6169,"cs3sE4sC5sC4s0p25":6170,"cs4sCw4sG":6171,"cs4sCw5sB":6172,"cs4sFw6sE":6173,"cs2sD6sD7s1p0":6174,"cs2sE4sC5s1q3":6175,"cs3sE4sG4sCw5s0p25":6176,"cs3sE4sG4sE5s1p5":6177,"cs3sC5sE4sC4s1q3":6178,"cs3sC5sE4sC4s1p0":6179,"cs3sC5sE5sA5s0p75":6180,"cs3sA4sC4sC5s0p25":6181,"cs3sA4sC5sG5s1p0":6182,"cs3sA4sC5sF5s0p5":6183,"cs3sA4sC4sA3s1p0":6184,"cs3sA4sC5sEt5s1p0":6185,"cs3sA4sC5sC4s0p25":6186,"cs3sA4sC5sF5s2p0":6187,"2sE3s1p0":6188,"1sGw":6189,"cs3sD4sF4sGw4s0p25":6190,"cs3sD4sF4sBt4s0p25":6191,"cs2sD5sF5s1p5":6192,"cs3sG4sE5sC5s1p0":6193,"cs3sG4sE4sC4s1p0":6194,"cs3sG4sE5sG5s0p75":6195,"cs3sG4sE4sC4s2p0":6196,"cs3sG4sE5sE4s1p0":6197,"7sD7sC7s0p25":6198,"cs2sEt5sEt6s1p5":6199,"cs3sC4sF4sC5s0p5":6200,"cs3sC4sF4sC5s0p75":6201,"cs3sC4sF3sF4s1p0":6202,"cs3sC4sF4sA4s0p75":6203,"cs3sA3sC4sG4s0p25":6204,"cs3sA3sC4sG4s1p0":6205,"cs3sA3sC4sFw4s0p25":6206,"7sGw6s1p0":6207,"cs3sB3sD4sF4s0p5":6208,"cs3sC4sA4sC5s0p5":6209,"cs3sC4sA4sF4s1p0":6210,"cs3sG4sB4sG5s0p5":6211,"7sCw7sCw":6212,"cs2sBt3sBt2s0p5":6213,"cs3sE5sG5sC6s0p25":6214,"cs3sE5sG5sE6s1p0":6215,"cs3sF4sD5sGw4s0p25":6216,"cs3sF4sD4sA3s0p5":6217,"cs2sC4sC3s1q3":6218,"cs2sC4sC3s1p0":6219,"cs3sF4sGw4sCw4s0p25":6220,"cs3sF4sGw4sCw5s1q3":6221,"cs3sF4sGw4sEt5s1p0":6222,"7sFw6s1p0":6223,"7sFw7sA":6224,"cs3sC5sA4sE4s0p25":6225,"cs3sC5sA5sE5s1p0":6226,"cs3sE4sA4sE5s1q3":6227,"2sF2s0p5":6228,"cs2sB5sB4s0p75":6229,"cs2sD4sB3s2q3":6230,"cs3sE3sG3sBt3s0p5":6231,"cs3sE3sG3sC4s0p75":6232,"cs3sE3sG3sC4s1p5":6233,"cs3sE3sG3sC4s2p0":6234,"cs3sA4sE5sC5s0p25":6235,"cs3sG3sE3sC4s0p25":6236,"cs3sG3sE4sC4s1p5":6237,"cs2sGw5sGw4s1q3":6238,"cs2sGw5sGw4s0p75":6239,"cs3sC4sG4sC5s0p5":6240,"cs3sC4sG3sE4s1p0":6241,"cs3sC5sG4sC4s0p5":6242,"cs3sC5sG5sC6s1p0":6243,"cs3sC5sG4sC4s1p0":6244,"cs3sB4sD5sGw5s0p25":6245,"cs3sB4sD5sG5s0p5":6246,"cs2sBt4sBt5s1p0":6247,"cs3sE5sE4sG4s0p25":6248,"cs3sE5sE4sC5s1p0":6249,"cs3sE5sE4sE4s1q3":6250,"cs3sE3sC4sE":6251,"cs3sGw4sB4sCw5s0p25":6252,"cs3sGw4sB3sB4s0p25":6253,"cs3sE5sC5sG5s0p5":6254,"cs3sE5sC5sG4s0p5":6255,"cs3sF4sB4sD5s1p0":6256,"cs3sF4sB4sGw4s0p5":6257,"cs3sF4sB4sD4s1p0":6258,"cs2sGw3sGw4s0p75":6259,"cs3sA4sF4sD5s1p0":6260,"cs2sB3sG4s2p0":6261,"cs2sB3sG3s0p75":6262,"cs3sD5sF4sD4s0p25":6263,"cs3sD5sF4sD4s1p0":6264,"cs3sG5sE6sB5s0p25":6265,"cs3sG5sE5sE6s0p75":6266,"cs3sF4sC5sF5s0p5":6267,"cs3sF4sC5sG4s1p0":6268,"cs3sB3sF4sA4s0p25":6269,"cs3sB3sF3sCw4s0p25":6270,"cs3sG3sB3sF3s0p25":6271,"cs2sEt6sEt5s1q3":6272,"7sBt7s0p25":6273,"cs3sE4sE3sC4s0p5":6274,"cs3sE4sE3sG3s1p0":6275,"cs3sE4sGw4sC5s0p5":6276,"cs3sE4sGw4sB3s0p25":6277,"cs3sE4sGw3sB3s0p5":6278,"cs3sE4sGw4sB4s1p0":6279,"cs2sCw5sCw4s1p0":6280,"cs2sEt4sEt5s1p5":6281,"cs3sC4sEt4sA4s1p0":6282,"cs3sA5sC5sFw5s0p5":6283,"cs4sE4sG4sG":6284,"cs4sE4sG4sBt":6285,"cs3sC4sC5sA4s0p25":6286,"cs3sG4sD5sG5s0p5":6287,"cs3sG4sD5sG5s1p5":6288,"cs3sC6sE5sE6s0p25":6289,"cs3sD5sB5sD6s0p75":6290,"4sE4sG4sE4sC4s0p25":6291,"cs3sB4sGw4sF4s0p5":6292,"cs3sB4sGw4sE4s0p75":6293,"cs3sE4sB4sGw4s0p25":6294,"cs3sC5sC4sA4s0p5":6295,"cs3sC5sC6sA5s0p25":6296,"cs2sCw6sCw7s0p75":6297,"cs4sE5sG5sE":6298,"cs4sE5sG5sB":6299,"cs3sE6sGw5sGw6s0p5":6300,"cs3sC5sD5sFw4s0p25":6301,"cs3sF5sD6sF6s0p25":6302,"cs3sF5sD5sB4s0p5":6303,"cs3sB4sF4sD5s0p5":6304,"cs3sB4sF5sA5s0p5":6305,"cs3sB4sF5sB5s0p5":6306,"cs3sG4sBt4sG5s1p0":6307,"cs3sC5sF5sC6s0p5":6308,"cs3sB3sE4sB4s0p25":6309,"cs3sB3sE4sG4s1p0":6310,"cs4sC5sE5sA5sC6s0p25":6311,"cs4sE4sE5sG":6312,"cs4sE4sE3sG":6313,"cs3sE5sGw5sE6s0p25":6314,"cs3sE5sGw4sGw5s0p25":6315,"cs2sC5sEt4s0p5":6316,"cs3sA4sB4sE5s0p25":6317,"cs3sA4sB4sF5s0p25":6318,"cs3sEt4sG4sC5s0p25":6319,"cs3sEt4sG4sBt4s0p25":6320,"cs3sE6sC6sE6s0p25":6321,"cs4sE4sA4sCw":6322,"cs4sE4sA4sCw5sE5s0p25":6323,"cs3sD5sG5sB5s0p25":6324,"cs3sD5sG5sB5s0p5":6325,"cs3sC6sC5sE5s0p25":6326,"cs3sC6sC5sA5s1p0":6327,"cs3sC6sC7sEt6s0p25":6328,"cs4sD4sF4sBt":6329,"cs3sA5sF5sD5s1p0":6330,"cs2sE3sE4s1p5":6331,"cs3sB4sA4sB4s0p25":6332,"cs3sF4sF3sC4s0p5":6333,"cs3sF4sF5sGw4s0p25":6334,"cs3sF4sF5sGw4s0p5":6335,"cs3sD4sGw4sB4s0p5":6336,"cs3sF4sBt4sF5s0p25":6337,"cs6sE6sBt5sG5sF":6338,"cs3sGw3sC4sF4s1p0":6339,"cs3sCw4sF4sGw4s1p0":6340,"cs3sCw4sF4sGw4s0p75":6341,"cs3sB3sGw3sE4s0p25":6342,"cs3sGw5sE5sGw4s0p25":6343,"cs4sB4sD4sG":6344,"cs5sC5sEt5sFw":6345,"cs5sC4sE4sG4sE4sC4s0p25":6346,"cs2sC4sF4s1p5":6347,"cs3sB5sG5sB4s0p25":6348,"cs3sA3sE4sC4s1p0":6349,"cs3sF5sG4sD5s0p25":6350,"cs3sF5sG4sG5s0p25":6351,"cs3sGw4sF4sF5s0p5":6352,"cs3sEt4sGw4sC5s0p75":6353,"cs3sC4sFw4sGw4s0p25":6354,"cs3sC4sFw4sA4s1p0":6355,"cs3sGw4sD5sE5s0p25":6356,"cs3sGw4sD4sC5s0p25":6357,"cs3sA4sD5sF5s0p5":6358,"cs3sA5sD6sA6s0p25":6359,"cs3sA5sD6sF5s0p25":6360,"cs3sF5sF4sD5s0p25":6361,"cs3sF5sF4sD5s0p5":6362,"cs3sF5sF6sD6s0p5":6363,"cs3sF3sGw3sD4s0p5":6364,"cs3sF3sGw3sC4s0p5":6365,"cs3sFw4sC5sFw5s0p25":6366,"cs3sBt4sG5sBt5s0p25":6367,"cs2sF3sA3s1p5":6368,"3sD4sF4s1p5":6369,"cs3sF5sGw5sD6s0p25":6370,"cs3sEt4sFw4sGw4s0p25":6371,"cs3sEt4sFw4sEt5s0p25":6372,"cs3sFw4sEt4sB3s0p25":6373,"2sEt3s0p25":6374,"cs3sA3sF4sA4s0p25":6375,"cs3sA3sF4sD4s0p5":6376,"cs3sA3sF3sF4s0p25":6377,"cs3sA3sF4sA4s0p75":6378,"5sCw6sE6s1p0":6379,"cs3sE4sCw5sE5s0p25":6380,"cs2sB2sB3s2p0":6381,"cs3sA5sE5sA4s0p25":6382,"cs4sE3sG3sC4sE4s0p5":6383,"cs3sC4sGw3sGw4s1p0":6384,"cs3sFw4sA4sB4s0p25":6385,"cs3sEt5sC5sA4s0p25":6386,"cs3sEt5sC5sA4s1p0":6387,"cs4sD5sF5sA":6388,"cs2sA5sCw6s2p0":6389,"cs3sE6sG6sG5s1p0":6390,"cs3sBt4sE5sG5s0p25":6391,"cs2sG5sBt5s1p0":6392,"cs4sD5sFw5sB":6393,"cs3sG3sD4sF4s0p25":6394,"cs3sG6sG5sB5s0p25":6395,"cs4sE4sGw4sB4sE":6396,"cs4sA4sC5sA":6397,"cs4sA4sC5sD":6398,"2sCw3sE3s0p5":6399,"4s5p75":6400,"cs3sFw4sB4sD5s1p0":6401,"cs3sFw4sB4sFw5s0p25":6402,"cs3sG3sBt3sC4s0p25":6403,"cs3sG3sBt3sD4s0p25":6404,"cs3sEt5sFw5sB5s0p75":6405,"cs3sFw5sC5sA5s1p0":6406,"cs3sFw5sC5sFw4s0p25":6407,"cs5sF3sG3sB3sD":6408,"cs2sA4sF5s0p75":6409,"cs2sA4sF4s1p5":6410,"cs2sA4sF5s2p0":6411,"cs3sD4sD5sB4s0p25":6412,"cs5sD4sE4sD":6413,"cs2sB2sG3s1p0":6414,"cs2sB2sG2s0p25":6415,"cs2sB2sG3s2p0":6416,"cs3sB5sE5sB4s0p25":6417,"cs3sB5sE6sB6s0p25":6418,"cs3sF3sG3sD4s0p25":6419,"cs3sCw5sA5sCw":6420,"cs3sA4sCw5sA5s0p25":6421,"cs3sA6sF6sD6s0p25":6422,"cs3sA3sA4sC4s0p25":6423,"cs3sD5sGw5sB5s1p0":6424,"cs4sE6sC6sE5sG5s0p25":6425,"cs3sEt4sA4sB4s0p5":6426,"cs4sC6sE6sA":6427,"cs4sGw4sE5sB":6428,"cs5sA5sE":6429,"cs2sG3sB3s0p75":6430,"cs2sG3sB2s1q3":6431,"cs3sGw5sGw4sC5s0p25":6432,"cs3sA3sFw4sA4s0p25":6433,"cs3sGw3sE4sGw4s0p25":6434,"cs4sE6sE5sC":6435,"cs4sB5sEt5sB":6436,"nsG3s4p0":6437,"cs3sBt3sF4sBt4s1p0":6438,"cs4sB5sE5sGw":6439,"cs4sC4sG3sE4sG4s1p0":6440,"cs4sC4sG3sE4sG4s1p5":6441,"cs4sA4sC5sE5sA5s1p0":6442,"cs2sEt3sEt4s2p0":6443,"cs4sF5sGw5sCw6sF6s0p25":6444,"cs3sB5sF5sF6s0p25":6445,"cs4sE5sE4sC":6446,"cs4sGw4sC5sF5sGw5s0p25":6447,"cs2sC3sE3s0p75":6448,"cs3sE6sA5sE5s0p25":6449,"cs3sG4sEt5sG5s0p25":6450,"cs2sCw4sCw5s1p5":6451,"cs2sCw4sCw5s2p0":6452,"cs3sEt6sEt5sB5s0p25":6453,"cs4sG4sB4sA4sC5s1q3":6454,"cs6sE6sG5sBt5sF6sC6sA5s0p25":6455,"cs3sG5sA5sG5s0p25":6456,"cs3sGw3sCw4sF4s0p25":6457,"cs3sEt3sC4sEt4s1p0":6458,"cs3sGw4sGw5sE5s0p25":6459,"cs3sEt4sBt4sCw5s0p25":6460,"cs4sG3sBt3sD":6461,"cs4sG3sBt3sCw":6462,"cs4sG4sC5sE5sG5s0p5":6463,"cs3sBt3sC4sBt4s1p0":6464,"cs4sD5sC5sA":6465,"cs2sE5sC6s3p0":6466,"cs2sA2sFw3s0p5":6467,"cs3sFw3sC4sD4s0p25":6468,"cs3sFw3sC4sD4s0p5":6469,"cs4sC4sEt4sFw4sC5s1p0":6470,"cs3sBt6sBt5sG6s0p25":6471,"cs3sCw5sG4sB4s0p25":6472,"cs3sC6sGw5sF5s0p25":6473,"cs3sC7sA6sC6s0p25":6474,"cs3sB3sA3sEt4s1p0":6475,"cs3sG6sB5sG5s0p5":6476,"cs3sG3sA3sB3s0p25":6477,"cs3sA3sCw4sE4s1p0":6478,"cs3sGw6sGw5sF6s0p25":6479,"cs2sE7sE6s1q3":6480,"cs2sC4sA3s2p0":6481,"cs4sE6sD6sB":6482,"cs4sE6sD6sE6sD6s0p25":6483,"cs4sC3sEt3sGw3sC4s0p25":6484,"cs2sE3sCw4s1q3":6485,"cs2sE3sCw3s0p5":6486,"cs2sBt2sBt3s2p0":6487,"cs4sB3sB4sD":6488,"cs4sEt4sG3sBt":6489,"cs2sB6sB5s1p25":6490,"cs4sG5sD5sB4sG4s1p0":6491,"cs4sA3sC4sD4sA4s0p25":6492,"cs4sA5sG5sA5sG5s0p25":6493,"cs4sD5sG5sB5sD6s1p0":6494,"cs4sCw4sE4sBt":6495,"cs2sC3sFw2s1q3":6496,"cs3sCw4sGw4sCw5s0p5":6497,"cs4sF4sD4sD":6498,"cs4sEt3sG3sBt3sEt4s0p5":6499,"cs3sG4sB4sG5s1p75":6500,"cs2sC3sG2s1q3":6501,"cs2sA3sF3s1q3":6502,"cs2sA3sF4s1p5":6503,"cs3sB5sC6sD6s0p25":6504,"cs3sB5sC6sB5s0p25":6505,"cs4sG3sC4sE4sG4s1p0":6506,"cs4sGw4sB4sE4sE5s0p5":6507,"cs4sFw4sEt4sEt":6508,"cs4sB4sE5sGw5sB5s0p5":6509,"cs4sE5sB4sD":6510,"cs4sF5sA5sC":6511,"cs4sGw4sB4sD5sGw5s1p0":6512,"cs4sE4sG4sC5sE5s2q3":6513,"cs2sD3sF3s1p5":6514,"cs3sD4sG4sB4s0p75":6515,"cs4sG6sE6sC6sG5s0p25":6516,"cs4sA5sCw6sFw6sA6s0p25":6517,"cs4sGw4sB4sCw":6518,"cs4sFw6sEt6sF6sD6s0p25":6519,"cs2sEt2sEt3s0p25":6520,"cs2sEt2sEt3s0p5":6521,"cs4sE7sCw7sA":6522,"cs4sF5sG5sB5sD6s0p5":6523,"cs4sBt5sBt4sCw":6524,"cs2sB5sD6s1p5":6525,"cs2sB5sD6s3p0":6526,"cs2sB2sA3s1p0":6527,"6sC7sA6sG6s0p25":6528,"cs3sG6sBt5sG5s0p25":6529,"cs2sBt3sEt4s1q3":6530,"cs3sA2sE3sA3s1p0":6531,"cs3sGw3sEt4sGw4s1q3":6532,"cs3sFw5sE5sFw5s0p25":6533,"cs3sBt6sF6sBt5s0p25":6534,"cs4sC6sG5sE5sC5s2p0":6535,"cs4sF4sBt4sD5sF5s0p25":6536,"cs4sE5sFw5sBt":6537,"cs4sC8sG":6538,"cs4sEt6sEt5sEt6sEt5s0p25":6539,"cs6sB7sGw7sB6sB7sGw7sB6s0p25":6540,"cs2sD3sB2s1p0":6541,"cs4sE6sC6sA5sE5s0p5":6542,"cs3sC5sC6sE5s1p0":6543,"cs2sGw4sB4s3p0":6544,"cs3sF7sF6sA6s0p25":6545,"cs4sE7sC7sG6sE6s0p25":6546,"cs4sFw5sEt5sG5sE5s0p25":6547,"cs4sE4sA4sC5sE5s2p0":6548,"cs4sE5sGw5sB5sE6s0p25":6549,"cs4sB5sE6sG6sB6s1q3":6550,"cs4sG5sFw5sG":6551,"cs3sBt6sG6sBt5s0p25":6552,"cs4sD5sFw5sC6sD6s0p5":6553,"cs4sB5sE6sGw6sB6s1q3":6554,"cs4sB6sB5sEt6sFw6s0p5":6555,"cs4sG2sC3sE3sG":6556,"cs4sF5sBt5sCw6sF6s0p25":6557,"1sD2s0p5":6558,"cs4sG4sG5sF4sF5s0p25":6559,"cs5sFw6sG6sC7sA6sG6s0p25":6560,"cs4sG2sB2sD":6561,"cs4sF5sC6sEt6sF6s0p25":6562,"rs35q12":6563,"7sFw6sFw7sEt7s0p25":6564,"cs4sE3sA3sC4sE4s0p5":6565,"cs4sG5sBt4sE5sBt5s0p5":6566,"cs4sD3sB3sD4sG3s0p25":6567,"cs4sF4sC5sEt5sF5s0p25":6568,"cs4sF3sC4sEt4sF4s0p25":6569,"3q24":6570,"cs6sD":6571,"cs5sCw":6572,"cs5sE5sC":6573,"4s7q12":6574,"5s3p75":6575,"5s3p25":6576,"3s2p25":6577,"nsG6s1p5":6578,"nsG5s2p5":6579,"nsG6s1p75":6580,"nsG1s1p0":6581,"nsE5s2p25":6582,"nsE2s2p5":6583,"nsC2s2p0":6584,"nsC3s1p75":6585,"nsC5s3p5":6586,"nsC3s1q12":6587,"nsC7s1p25":6588,"nsF2s3p0":6589,"nsB6s2p0":6590,"nsB4s1p75":6591,"nsB5s4p0":6592,"nsB3s1p75":6593,"nsB4s2p25":6594,"nsD7s0p75":6595,"nsD6s1p75":6596,"nsD7s2p0":6597,"nsD7s3p0":6598,"nsA6s1p5":6599,"nsA6s3p0":6600,"nsA4s4q3":6601,"nsA2s4p0":6602,"cs2sE6sC":6603,"cs2sE3sD":6604,"cs2sE6sD":6605,"cs2sE4sF4s0p5":6606,"cs2sE4sD4s0p5":6607,"cs2sE3sCw4s0p25":6608,"cs2sE6sGw5s0p25":6609,"cs2sE3sGw3s0p5":6610,"cs2sE4sD4s1p0":6611,"cs2sE5sC6s1q3":6612,"cs2sE6sG5s0p5":6613,"cs2sE4sB3s0p5":6614,"cs2sE5sCw5s1q3":6615,"cs2sE6sCw7s0p25":6616,"cs2sE6sG5s1p0":6617,"cs2sE7sCw7s0p25":6618,"cs2sE6sBt5s0p5":6619,"cs2sE5sBt5s1p0":6620,"cs2sE5sBt4s1q3":6621,"cs2sE2sG2s0p5":6622,"cs2sE2sG2s0p25":6623,"cs2sE3sFw3s1p0":6624,"cs2sE4sGw4s3p0":6625,"4sE4sBt":6626,"4sE4sA4s0p25":6627,"4sE4sC5s0p5":6628,"4sE4sG3s0p25":6629,"4sE5s1q12":6630,"cs2sC4sD5s0p5":6631,"cs2sC3sG3s0p25":6632,"cs2sC5sG5s1p0":6633,"cs2sC4sGw4s1p0":6634,"cs2sC6sFw5s0p25":6635,"cs2sC7sE7s0p25":6636,"cs2sC5sGw5s1p0":6637,"cs2sC3sD3s0p25":6638,"cs2sC3sC4s1p5":6639,"cs2sC2sC3s0p25":6640,"cs2sC7sEt7s0p25":6641,"cs2sC7sGw6s0p25":6642,"cs2sC5sD4s0p25":6643,"cs2sC6sD5s0p25":6644,"cs2sC6sF6s0p5":6645,"cs2sC7sCw7s0p25":6646,"cs2sC4sEt4s1q3":6647,"cs2sC5sFw4s0p5":6648,"cs2sC4sG3s0p75":6649,"cs2sC5sGw4s0p75":6650,"cs2sC7sG6s1q3":6651,"cs2sC7sG6s0p5":6652,"cs2sC3sGw2s0p25":6653,"4sC4s1p25":6654,"4sC4sA3s0p5":6655,"4sC5s1q6":6656,"4sC5sD5s2q3":6657,"5sE5sFw5s0p25":6658,"5sE6s1p5":6659,"5sE5s1p25":6660,"5sE5s1p75":6661,"5sE5s2q3":6662,"5sE6sCw6s0p25":6663,"5sE5s4q3":6664,"5sE6s1p25":6665,"cs2sB3sE":6666,"cs2sB6sE6s0p25":6667,"cs2sB3sC4s0p5":6668,"cs2sB5sG5s1q3":6669,"cs2sB5sE5s1p0":6670,"cs2sB3sF3s0p25":6671,"cs2sB4sE5s1p0":6672,"cs2sB5sFw5s1q3":6673,"cs2sB5sD5s1p0":6674,"cs2sB6sG6s0p5":6675,"cs2sB2sFw":6676,"cs2sB4sF4s0p75":6677,"cs2sB3sEt3s0p5":6678,"cs2sB3sE4s1p5":6679,"cs2sB2sF3s0p25":6680,"cs2sB5sGw5s1p5":6681,"cs2sB4sE5s2p0":6682,"cs2sB2sD3s2p0":6683,"cs2sB4sC6s0p25":6684,"4sB5s0p5":6685,"4sB5s1p0":6686,"4sB4sFw":6687,"4sB4sGw4s0p25":6688,"4sB4sEt5s0p25":6689,"4sB3s3p0":6690,"4sB4s1q6":6691,"4sB4sE4sG":6692,"4sG3sC4s0p25":6693,"4sG3s1p5":6694,"4sG3sB3s0p5":6695,"4sG3sE4s1p0":6696,"4sG3sG4s0p25":6697,"nsGw6s2p0":6698,"nsGw4s1p75":6699,"nsGw5s2p5":6700,"nsGw5s1q12":6701,"nsGw4s4p0":6702,"cs2sG3sD":6703,"cs2sG3sG3s0p25":6704,"cs2sG2sC":6705,"cs2sG6sD6s1q3":6706,"cs2sG6sCw6s0p25":6707,"cs2sG3sA3s1p0":6708,"cs2sG6sF5s0p25":6709,"cs2sG4sCw5s1p0":6710,"cs2sG3sC4s0p75":6711,"cs2sG6sB5s1p0":6712,"cs2sG4sE5s1q3":6713,"cs2sG4sB3s1q3":6714,"cs2sG2sEt":6715,"cs2sG3sE4s0p75":6716,"cs2sG4sE4s0p75":6717,"cs2sG3sD3s1p0":6718,"cs2sG2sA2s0p25":6719,"cs2sG4sEt4s0p75":6720,"cs2sG5sE5s0p75":6721,"cs2sG2sE3s0p5":6722,"cs2sG3sD4s2p0":6723,"cs2sG1sB":6724,"cs2sG5sB5s2p0":6725,"cs2sG2sCw3s0p25":6726,"cs2sD4sA":6727,"cs2sD4sC5s0p25":6728,"cs2sD4sC5s0p5":6729,"cs2sD3sC4s0p5":6730,"cs2sD5sA5s0p5":6731,"cs2sD5sE5s0p5":6732,"cs2sD3sA3s0p5":6733,"cs2sD3sBt3s0p5":6734,"cs2sD4sCw5s1q3":6735,"cs2sD4sG4s0p75":6736,"cs2sD4sGw3s0p25":6737,"cs2sD4sFw4s1q3":6738,"cs2sD6sCw7s0p25":6739,"cs2sD3sEt3s0p25":6740,"cs2sD3sFw3s0p5":6741,"cs2sD2sCw":6742,"cs2sD6sF5s0p5":6743,"cs2sD4sG3s1q3":6744,"cs2sD4sGw4s2p0":6745,"cs2sD6sFw6s1q3":6746,"cs2sD4sGw3s1p0":6747,"cs2sD5sA4s0p75":6748,"cs2sD4sFw4s0p75":6749,"cs2sD3sG2s0p25":6750,"cs2sA4sD":6751,"cs2sA6sEt6s0p25":6752,"cs2sA5sD5s1q3":6753,"cs2sA4sG5s0p25":6754,"cs2sA4sEt4s0p5":6755,"cs2sA3sCw4s0p5":6756,"cs2sA5sD6s0p5":6757,"cs2sA4sD4s1q3":6758,"cs2sA6sC6s0p5":6759,"cs2sA5sD5s1p0":6760,"cs2sA6sE6s0p5":6761,"cs2sA6sF6s1q3":6762,"cs2sA4sD5s1q3":6763,"cs2sA3sF3s2p0":6764,"cs2sA4sCw5s0p75":6765,"cs2sA5sF6s1q3":6766,"cs2sA5sFw5s1p5":6767,"cs2sA6sC7s1q3":6768,"cs2sA7sC8s0p25":6769,"cs2sA4sG5s1p25":6770,"5sC4s1q3":6771,"5sC6sD":6772,"5sC5sGw4s0p25":6773,"5sC5sE4s0p25":6774,"5sC6s2p5":6775,"5sC6s4q3":6776,"5sC6sGw5s1p0":6777,"nsEt3s0p75":6778,"nsEt5s1p25":6779,"nsEt4s2p5":6780,"nsFw5s3p0":6781,"nsFw4s1p25":6782,"nsFw3s1p25":6783,"nsFw6s1q12":6784,"cs2sF6sD":6785,"cs2sF4sC5s1p0":6786,"cs2sF3sE4s0p25":6787,"cs2sF3sB3s1p0":6788,"cs2sF4sGw4s1q3":6789,"cs2sF5sB5s1p0":6790,"cs2sF5sGw5s0p5":6791,"cs2sF6sG5s0p5":6792,"cs2sF4sG4s0p75":6793,"cs2sF5sA4s1p0":6794,"cs2sF3sC4s1q3":6795,"cs2sF6sC6s0p5":6796,"cs2sF5sCw5s1q3":6797,"cs2sF7sD7s0p25":6798,"cs2sF6sG6s1q3":6799,"cs2sF4sGw4s0p75":6800,"cs2sF4sGw4s1p5":6801,"cs2sF5sBt5s1p0":6802,"cs2sF7sB7s0p25":6803,"cs2sF3sG3s1p5":6804,"cs2sF3sD4s1p5":6805,"cs2sF7sE7s1q3":6806,"cs2sF4sCw4s1p5":6807,"cs2sF4sBt4s1p5":6808,"cs2sF4sE5s1p25":6809,"4sA5s0p75":6810,"4sA4sD5s0p5":6811,"4sA3s3p0":6812,"4sD4sC4s0p25":6813,"4sD4s2q3":6814,"4sD5s2q3":6815,"5sB4sEt":6816,"5sB4s1p5":6817,"5sB5sFw":6818,"5sB4s1q6":6819,"5sB4sE5sCw":6820,"nsBt6s2p0":6821,"nsBt6s1p5":6822,"nsBt5s1p75":6823,"nsBt5s2p5":6824,"nsBt1s0p25":6825,"nsBt5s2p25":6826,"4sF5s1p5":6827,"4sF5sCw":6828,"4sF4s4p0":6829,"5sG5sC":6830,"5sG5sD5s0p25":6831,"5sG4sBt4s0p25":6832,"5sG4s2q3":6833,"5sG5sE5s0p5":6834,"5sG5s1q6":6835,"5sG6s1q6":6836,"5sG4sF4sCw":6837,"nsCw3s1p5":6838,"nsCw2s1q3":6839,"nsCw6s1p5":6840,"nsCw5s1p75":6841,"nsCw5s1q12":6842,"5sA4sF5s0p25":6843,"5sA5s2q3":6844,"5sA5sC6s0p5":6845,"5sA4s4q3":6846,"5sA5sC6s2p0":6847,"3sC4sD":6848,"3sC4sGw":6849,"3sC3s1p5":6850,"3sC4s1p25":6851,"cs3sE6sFw":6852,"cs3sE4sC5sE5s0p5":6853,"cs3sE4sF4sE4s0p25":6854,"cs3sC3sC4sE":6855,"cs3sC5sCw5sD5s0p25":6856,"5sD5sF5s0p25":6857,"5sD5s1p75":6858,"5sF5sD6s0p25":6859,"5sF5s1p25":6860,"5sF5sC5s0p5":6861,"5sF5s2p5":6862,"5sF5sF4s1p0":6863,"5sF4sA4sC5s0p25":6864,"5sF6sE6sF6s0p25":6865,"5sF5sE5sC5sE5s0p25":6866,"5sF4sA4sC5sF":6867,"6sE6sC":6868,"6sE6sB":6869,"6sE6sG":6870,"6sE6sC7s1p0":6871,"4sGw5s1q3":6872,"4sGw4sB":6873,"4sGw3s0p75":6874,"4sGw4sC5s1p0":6875,"4sGw4sEt4s0p25":6876,"4sGw5sE6sB":6877,"cs2sGw4sC5s1p0":6878,"cs2sGw4sA4s1q3":6879,"cs2sGw4sC4s1q3":6880,"cs2sGw4sF4s1q3":6881,"cs2sGw5sCw5s1q3":6882,"cs2sGw4sD5s0p75":6883,"cs2sGw4sE5s1q3":6884,"cs2sGw4sC5s1p5":6885,"cs2sGw5sF4s0p25":6886,"cs2sGw3sE3s1q3":6887,"cs2sGw3sB3s1q3":6888,"cs2sGw6sC7s0p5":6889,"cs2sGw3sF3s2p0":6890,"cs2sGw1sGw":6891,"3sE4sG4s0p5":6892,"cs3sB6sEt":6893,"cs3sB6sBt":6894,"cs3sB7sB":6895,"cs3sB4sC5sE5s0p25":6896,"3sB4s0p5":6897,"3sB4s1p0":6898,"6sC6sG":6899,"6sC7sEt":6900,"cs3sG6sF":6901,"cs3sG2sB":6902,"cs3sG5sFw5sE5s0p25":6903,"3sG2s0p5":6904,"3sG3s3p0":6905,"cs2sEt4sA4s0p25":6906,"cs2sEt3sC4s1p0":6907,"cs2sEt5sBt4s0p25":6908,"cs2sEt4sA3s0p5":6909,"cs2sEt5sC5s1p0":6910,"cs2sEt4sBt4s0p5":6911,"cs2sEt5sF5s1p0":6912,"cs2sEt4sBt4s1p0":6913,"cs2sEt5sG4s0p5":6914,"cs2sEt6sG5s0p5":6915,"cs2sEt4sGw3s0p25":6916,"cs2sEt5sCw5s1q3":6917,"cs2sEt5sG5s0p75":6918,"cs2sEt5sG4s1q3":6919,"cs2sEt3sCw3s0p25":6920,"cs2sEt5sBt5s1q3":6921,"cs2sEt2sG2s0p5":6922,"cs2sEt5sC5s2p0":6923,"cs2sBt4sD4s0p25":6924,"cs2sBt6sE6s0p25":6925,"cs2sBt4sE4s0p5":6926,"cs2sBt4sCw5s1q3":6927,"cs2sBt6sBt5s0p5":6928,"cs2sBt4sFw5s0p5":6929,"cs2sBt3sG3s1q3":6930,"cs2sBt4sCw5s2p0":6931,"cs3sA6sG":6932,"cs3sA3sBt":6933,"cs3sA6sBt":6934,"cs3sA2sEt":6935,"cs3sA5sB4sG":6936,"cs3sA6sE6sC6s0p25":6937,"cs3sA6sCw6sA5s0p25":6938,"4sEt5s1p25":6939,"cs3sF3sE":6940,"cs3sF5sBt5sF":6941,"cs3sF6sA5sA6s0p25":6942,"cs3sF6sA5sA6s1p5":6943,"cs3sF3sD4sF4s1p5":6944,"cs2sFw4sC4s0p25":6945,"cs2sFw3sB3s0p5":6946,"cs2sFw4sC4s0p5":6947,"cs2sFw3sBt3s0p5":6948,"cs2sFw3sBt3s0p25":6949,"cs2sFw6sF5s0p25":6950,"cs2sFw7sC7s0p25":6951,"cs2sFw4sA4s2p0":6952,"cs2sFw4sBt4s0p75":6953,"cs2sFw4sA3s1p5":6954,"6sB5s1p5":6955,"6sB5sG5s0p25":6956,"6sB6sGw":6957,"6sB5s2p5":6958,"4sBt5s1p0":6959,"4sBt4sC5s0p25":6960,"4sBt3s1p5":6961,"4sBt4s4p0":6962,"4sBt4sB4sE4sG":6963,"5sGw4sC5s0p25":6964,"5sGw5sC6s1p0":6965,"4sCw4s0p75":6966,"4sCw4sCw":6967,"4sCw5sBt":6968,"4sCw5sG5s0p25":6969,"4sCw5sG4s0p25":6970,"4sCw5s1p75":6971,"6sA6sF":6972,"6sA5s2p0":6973,"6sA6sFw6s0p25":6974,"6sA6sGw6s0p25":6975,"4sFw4sGw4s0p25":6976,"4sFw4sCw4s0p25":6977,"cs2sCw4sC4s0p25":6978,"cs2sCw2sC":6979,"cs2sCw6sG5s0p25":6980,"cs2sCw6sFw6s0p25":6981,"cs2sCw5sB4s1q3":6982,"cs2sCw3sF3s0p5":6983,"cs2sCw3sFw3s0p25":6984,"cs2sCw6sG5s0p5":6985,"cs2sCw6sE5s0p25":6986,"cs2sCw6sF5s0p25":6987,"cs2sCw4sF4s1q3":6988,"cs2sCw4sEt4s1p0":6989,"cs2sCw4sGw3s0p5":6990,"cs2sCw4sE4s1p5":6991,"cs2sCw4sE3s0p25":6992,"cs2sCw6sFw5s1q3":6993,"cs2sCw5sE4s0p5":6994,"cs2sCw5sA4s1q6":6995,"cs2sCw3sBt3s2p0":6996,"cs3sD3sC":6997,"cs3sD4sCw":6998,"cs3sD3sGw":6999,"cs3sD6sEt":7000,"cs3sD6sBt":7001,"cs3sD7sGw":7002,"cs3sD3sC4sE4s1p0":7003,"cs3sD3sB3sD4s0p75":7004,"5sFw4s1p5":7005,"5sFw6sCw6s0p25":7006,"5sFw5s1q12":7007,"5sFw5s1q6":7008,"3sF3s3p0":7009,"6sD6sF":7010,"6sD6sF6s0p25":7011,"6sD7sB":7012,"6sD7s1q3":7013,"6sG5s0p75":7014,"6sG6sFw6s0p25":7015,"5sEt5sC5s0p25":7016,"5sEt6sFw6s0p25":7017,"3sA5s0p25":7018,"3sA3s0p75":7019,"3sA2s0p5":7020,"6sF5s1p5":7021,"6sF5s2p0":7022,"6sF6s0p75":7023,"6sF6s2p0":7024,"6sF7s0p5":7025,"6sF7s0p75":7026,"6sF7sD7s0p25":7027,"5sBt4sBt":7028,"5sCw5s0p75":7029,"5sCw5sA4s0p25":7030,"5sCw6sBt5s0p25":7031,"5sCw6sE5s0p25":7032,"5sCw5sBt4s1p0":7033,"cs3sGw6sA":7034,"cs3sGw6sF":7035,"cs3sGw7sF":7036,"cs3sGw4sD5sF5s1p5":7037,"cs4sE4sB":7038,"cs4sE4sCw":7039,"cs4sE4sC5sE":7040,"cs4sE5sB4sG":7041,"cs2sE5sE6s1p25":7042,"cs3sEt3sD":7043,"cs3sEt6sD":7044,"cs3sEt7sE":7045,"cs3sEt6sBt":7046,"cs3sEt3sC4sEt":7047,"cs3sFw3sE":7048,"cs3sFw3sBt":7049,"cs3sFw6sCw":7050,"cs3sFw4sC5sEt":7051,"cs3sFw3sC4sE4s0p25":7052,"cs3sFw6sA5sA":7053,"cs3sFw3sC4sEt":7054,"cs3sFw5sG5sA5s0p25":7055,"cs3sFw6sG5sG":7056,"cs3sFw6sC6sFw":7057,"3sGw3sG3s0p25":7058,"cs4sG7sE":7059,"cs4sG4sC5sEt":7060,"cs4sG3sD4sF":7061,"cs4sG2sC3sE":7062,"cs4sG6sD6sB":7063,"cs4sG6sEt6sC":7064,"6sGw6sE":7065,"6sGw6sE6s0p25":7066,"6sGw6sB5s0p25":7067,"6sGw6s1p5":7068,"6sGw5sB5s0p5":7069,"cs4sC3sE":7070,"cs4sC5sB4sG":7071,"cs4sC6sA5sA":7072,"cs3sBt5sB":7073,"cs3sBt7sF":7074,"cs3sBt4sA4sG4s0p25":7075,"cs3sBt7sG7sBt6s0p25":7076,"cs4sA3sD":7077,"cs4sA6sB":7078,"cs4sA5sBt":7079,"cs4sA3sD4sF":7080,"cs4sA6sCw7sE":7081,"6sFw7s0p25":7082,"6sFw6sG6s0p25":7083,"6sFw6sEt6s0p25":7084,"cs4sD3sD":7085,"cs4sD5sCw":7086,"cs4sD6sEt":7087,"cs4sD6sBt":7088,"cs4sD7sA":7089,"cs4sD4sE4sG":7090,"cs4sD6sCw6sE":7091,"cs4sD6sA5sF":7092,"6sEt5s0p5":7093,"6sEt7s1q3":7094,"6sEt7sFw7s0p25":7095,"3sBt4s0p5":7096,"cs3sCw6sD6sD":7097,"cs3sCw4sD4sF4s0p25":7098,"3sEt4s2p0":7099,"3sEt3s0p75":7100,"cs4sB6sA":7101,"cs4sB5sCw":7102,"cs4sB6sEt":7103,"cs4sB5sFw5sEt":7104,"cs4sB2sD3sF":7105,"6sCw6s1p5":7106,"6sCw7s1q3":7107,"6sCw7s1p0":7108,"6sCw7s1p5":7109,"3sCw3s0p5":7110,"3sCw4s0p75":7111,"3sCw4s2p0":7112,"3sCw4sFw":7113,"6sBt6s0p5":7114,"6sBt5s1p5":7115,"6sBt6sBt":7116,"6sBt5s2q3":7117,"6sBt6sD7s0p25":7118,"6sBt7sG7sBt6s0p25":7119,"3sFw4sCw4sE4s0p25":7120,"cs4sF3sE":7121,"cs4sF5sB4sG":7122,"cs4sF4sA4sC":7123,"cs4sF4sCw5sF":7124,"cs4sF3sBt3sCw":7125,"cs4sF7sC7sA":7126,"cs2sE6sE6s1q3":7127,"cs2sC5sE5s2p5":7128,"cs2sA4sA3s0p75":7129,"cs2sA4sA5s3p0":7130,"cs2sA4sA5s1q12":7131,"cs3sC4sE3sG3s0p25":7132,"cs3sC4sE4sG3s0p5":7133,"cs3sC4sE4sG4s0p75":7134,"cs3sC4sE4sC5s2p0":7135,"cs3sC4sE4sG4s1p5":7136,"cs3sC4sE4sE3s0p5":7137,"7sB7sD":7138,"rs11q6":7139,"rs17q6":7140,"cs2sC5sC4s0p75":7141,"cs4sGw4sG":7142,"cs4sGw4sGw":7143,"cs4sGw3sE":7144,"cs4sGw3sD":7145,"cs4sGw7sB":7146,"cs4sGw4sC5sEt":7147,"cs4sGw5sB5sD":7148,"cs4sGw6sD6sB":7149,"cs2sG3sG4s1q6":7150,"cs2sG3sG2s1p5":7151,"cs4sEt4sA":7152,"cs4sEt6sB":7153,"cs4sEt3sBt3sCw":7154,"7sA6sE":7155,"cs4sBt3sD":7156,"cs4sBt5sFw":7157,"cs4sBt6sG":7158,"cs4sBt5sCw6sE":7159,"cs4sBt5sC6sC5sE5s0p25":7160,"cs4sBt5sF6sE6sF6s0p25":7161,"cs4sBt3sFw4sCw4sE4s0p25":7162,"cs2sA5sA4s0p75":7163,"cs3sG3sC4sE4s2p0":7164,"cs3sG3sC4sE3s0p5":7165,"cs3sG3sC4sE4s3p0":7166,"cs3sE4sC4sG4s0p25":7167,"cs3sE4sC4sE4s0p25":7168,"cs3sE4sC5sG4s0p5":7169,"cs3sE4sC4sG4s0p75":7170,"cs3sE4sC4sG4s1p25":7171,"cs4sCw4sA":7172,"cs4sCw5sA":7173,"cs4sCw4sEt":7174,"cs4sCw6sCw":7175,"cs4sCw7sCw":7176,"cs4sCw3sE3sG":7177,"cs4sFw5sD":7178,"cs4sFw5sGw":7179,"cs4sFw6sFw":7180,"cs2sD6sD5s1p5":7181,"cs2sE4sC5s2p0":7182,"7sF7sD7s0p25":7183,"7sF6sF7sD7s0p25":7184,"cs3sE4sG3sC4s0p25":7185,"cs3sE4sG4sG3s0p25":7186,"cs3sE4sG4sC5s1p5":7187,"cs3sC5sE4sG4s0p25":7188,"cs3sC5sE4sA4s0p5":7189,"cs3sC5sE3sC4s1p0":7190,"cs3sC5sE4sG4s2p0":7191,"cs3sC5sE5sC6s1q6":7192,"cs3sA4sC5sG5s0p25":7193,"cs3sA4sC5sD5s0p25":7194,"cs3sA4sC4sF4s0p5":7195,"cs3sA4sC5sA5s1q3":7196,"cs3sA4sC5sA5s0p75":7197,"cs3sA4sC4sFw3s0p5":7198,"cs3sA4sC5sA5s2p0":7199,"cs3sA4sC5sC4s1q3":7200,"cs2sGw4sGw5s1p5":7201,"cs2sGw4sGw5s2p0":7202,"2sE2s0p25":7203,"2sE2s1p0":7204,"1s1p5":7205,"cs3sD4sF4sC5s1p0":7206,"cs3sD4sF4sD5s1p0":7207,"cs3sD4sF4sA4s1p0":7208,"cs3sD4sF4sBt4s1p0":7209,"cs3sD4sF4sA4s0p75":7210,"cs3sD4sF4sD5s0p75":7211,"cs3sD4sF4sGw3s0p5":7212,"cs3sD4sF4sGw4s1p5":7213,"cs3sD4sF3sB3s2p0":7214,"cs2sD5sF4s1p0":7215,"cs3sG4sE4sC5s2p0":7216,"cs3sG4sE4sC4s0p75":7217,"cs3sG4sE5sG5s1p5":7218,"cs3sG4sE4sE5s2p0":7219,"cs2sF6sF5s0p75":7220,"cs2sF6sF7s1q3":7221,"7sD6sF6s0p25":7222,"cs2sEt5sEt6s1q3":7223,"cs2sEt5sEt4s2p0":7224,"cs3sC4sF3sB3s0p25":7225,"cs3sC4sF4sB4s0p5":7226,"cs3sC4sF4sC5s1q3":7227,"cs3sC4sF3sF4s1q3":7228,"cs3sF4sA4sB4s1p0":7229,"cs3sF4sA4sF5s1p0":7230,"cs3sA3sC4sA4s1p5":7231,"cs3sA3sC4sFw4s1p0":7232,"cs3sA3sC4sA4s2p5":7233,"cs2sC4sE4s1p75":7234,"7sG7s1q3":7235,"cs3sB3sD4sB4s0p25":7236,"cs3sB3sD3sD4s0p5":7237,"cs3sB3sD4sFw4s0p25":7238,"cs3sB3sD4sGw4s0p5":7239,"cs3sB3sD4sG4s2p0":7240,"cs3sB3sD4sF3s0p5":7241,"7sEt6s1p0":7242,"cs3sC4sA4sA3s0p25":7243,"cs3sC4sA4sC5s1q3":7244,"cs3sG4sB4sE4s0p25":7245,"cs3sG4sB4sF5s0p25":7246,"cs3sG4sB4sD5s1q3":7247,"cs2sBt3sBt4s1q3":7248,"cs2sBt3sBt2s1p0":7249,"cs3sE5sG4sC5s0p25":7250,"cs3sE5sG5sC5s0p25":7251,"cs3sE5sG5sBt5s0p25":7252,"cs3sE5sG5sC6s1p0":7253,"cs3sE5sG5sE6s0p75":7254,"cs3sF4sD4sA3s1p0":7255,"cs3sF4sD4sGw3s0p5":7256,"cs3sF4sGw4sD5s0p25":7257,"cs3sF4sGw4sD5s0p5":7258,"cs3sF4sGw4sB4s0p5":7259,"cs3sF4sGw4sCw4s1q3":7260,"2sA2s0p5":7261,"7sFw6s1q3":7262,"7sFw7sB6s0p25":7263,"cs3sC5sA4sD4s0p25":7264,"cs3sC5sA4sFw4s0p25":7265,"cs3sC5sA4sEt5s0p25":7266,"cs3sC5sA4sE5s1p0":7267,"cs3sE4sA3sC4s0p25":7268,"cs3sE4sA3sFw3s0p25":7269,"2sF3s1p0":7270,"cs2sB5sB5s1q3":7271,"cs2sB5sB4s2p0":7272,"cs3sE3sG3sE4s0p25":7273,"cs3sE3sG3sA3s0p25":7274,"cs3sE3sG3sE4s0p5":7275,"cs3sE3sG3sE4s1p0":7276,"cs3sA4sE4sC4s0p25":7277,"cs3sG4sC4sE4s0p25":7278,"cs3sG4sC4sC5s0p5":7279,"cs3sG4sC5sG5s1q3":7280,"cs2sB4sD5s1p5":7281,"cs2sB4sD5s2q3":7282,"cs3sG3sE4sC4s1p0":7283,"cs3sG3sE3sE4s1p5":7284,"cs3sG3sE4sE3s1p0":7285,"cs2sGw5sGw4s1p0":7286,"cs2sGw5sGw6s1q3":7287,"cs2sGw5sGw6s0p75":7288,"cs3sC4sG3sE3s0p25":7289,"cs3sC4sG4sC5s1q3":7290,"cs3sC4sG3sG4s0p5":7291,"cs3sC4sG3sE3s1p5":7292,"cs3sC5sG4sC4s0p25":7293,"cs3sC5sG4sE4s1p0":7294,"cs3sC5sG4sE4s1q3":7295,"cs3sC5sG4sE5s1p0":7296,"cs3sB4sD5sE5s1p0":7297,"cs3sB4sD5sG4s0p5":7298,"cs3sB4sD5sFw5s1p0":7299,"cs2sBt4sBt5s1p5":7300,"cs2sBt4sBt5s2p0":7301,"cs3sD4sB4sF4s0p5":7302,"cs3sD4sB3sG3s0p25":7303,"cs3sD4sB3sG3s0p5":7304,"cs3sD4sB3sG4s0p5":7305,"cs3sE5sE4sB4s0p25":7306,"cs3sE5sE5sC5s0p25":7307,"cs3sE5sE4sG4s1p0":7308,"cs3sE5sE6sG5s0p5":7309,"cs3sE5sE4sE5s1q3":7310,"cs3sE3sC4sG4s1p0":7311,"cs3sE3sC4sE4s2p0":7312,"cs3sGw4sB4sE5s1p0":7313,"cs3sGw4sB4sGw5s0p25":7314,"cs3sE5sC5sC6s0p5":7315,"cs3sE5sC5sA4s0p5":7316,"cs3sE5sC5sA5s1p0":7317,"cs3sE5sC5sG4s1p0":7318,"cs3sF4sB4sG4s0p5":7319,"cs3sF4sB4sE5s1p0":7320,"cs3sF4sB4sD5s2p0":7321,"cs3sF4sB3sB4s0p25":7322,"cs2sGw3sGw4s1p5":7323,"cs2sGw3sGw4s2p0":7324,"cs3sA4sF5sD5s0p25":7325,"cs3sA4sF4sC5s0p5":7326,"cs3sA4sF4sB3s0p25":7327,"cs2sE4sG3s1p0":7328,"cs3sD5sF5sA4s0p25":7329,"cs3sG5sE5sG5s0p25":7330,"cs3sG5sE5sG4s0p25":7331,"cs3sG5sE3sC4s0p75":7332,"cs2sBt5sBt6s1p0":7333,"cs2sBt5sBt6s1p5":7334,"cs3sF4sC4sA4s0p5":7335,"cs3sF4sC4sA3s0p25":7336,"cs3sF4sC4sA3s1p5":7337,"cs2sD4sD3s1p0":7338,"cs3sB3sF4sB4s0p25":7339,"cs3sB3sF4sB4s0p5":7340,"cs3sB3sF3sF4s0p25":7341,"cs3sB3sF3sF4s1q3":7342,"cs3sG3sB3sE4s0p25":7343,"cs3sG3sB3sG4s0p5":7344,"cs3sG3sB3sF4s0p75":7345,"cs3sG3sB3sD4s2p0":7346,"cs3sF3sB3sE4s0p25":7347,"cs3sF3sB3sCw4s0p25":7348,"cs3sF3sB2sG3s0p25":7349,"7sBt7sFw7sA":7350,"cs3sE4sE5sG5s0p5":7351,"cs3sE4sE5sG4s0p25":7352,"cs3sE4sE5sCw5s0p25":7353,"cs3sE4sE5sC5s1p0":7354,"cs3sE4sE5sG4s1p0":7355,"cs3sE4sE5sGw4s1p0":7356,"cs3sE4sE5sE4s1q3":7357,"cs3sE4sGw4sE5s0p75":7358,"cs3sC4sEt4sGw4s0p25":7359,"cs3sC4sEt4sG4s0p5":7360,"cs3sC4sEt4sGw4s0p5":7361,"cs3sC4sEt3sEt4s0p25":7362,"cs3sC4sEt4sA4s0p75":7363,"cs3sA5sC6sEt6s0p25":7364,"cs3sA5sC6sA6s0p5":7365,"cs3sG4sG3sC4s0p5":7366,"cs4sE4sG3sC":7367,"cs4sE4sG4sE5sC5s0p5":7368,"cs3sC4sC5sG4s0p25":7369,"cs3sC4sC5sFw4s0p25":7370,"cs3sC4sC5sEt4s0p5":7371,"cs3sG4sD5sB4s0p25":7372,"cs3sG4sD5sB4s0p5":7373,"cs2sC7sC6s2p0":7374,"cs3sD5sB4sF4s0p25":7375,"cs3sD5sB5sB4s0p25":7376,"cs3sD5sB4sG5s0p25":7377,"cs3sD5sB4sD4s1p0":7378,"cs3sB4sGw4sE5s0p25":7379,"cs3sE4sB3sGw3s0p25":7380,"cs3sE4sB3sGw4s0p25":7381,"cs3sE4sB4sEt5s3p0":7382,"cs3sC5sC4sA4s1p0":7383,"cs3sB4sE5sB5s0p75":7384,"cs2sCw6sCw5s1p5":7385,"cs4sE5sG5sBt":7386,"cs4sE5sG5sCw":7387,"cs3sE5sB4sD5s0p25":7388,"cs3sE5sB5sE6s0p5":7389,"cs3sE5sB4sGw4s1p5":7390,"cs3sE6sGw5sE5s1q3":7391,"cs3sGw4sC5sF5s1p0":7392,"cs3sGw4sC4sFw4s1q3":7393,"cs3sF5sD5sA5s0p25":7394,"cs3sF5sD5sA4s1p0":7395,"cs3sF5sD6sF6s1p0":7396,"cs3sG5sB5sD6s0p25":7397,"cs3sG5sB5sG6s1q3":7398,"cs3sD4sG4sB4s0p5":7399,"cs3sD4sG3sB3s0p5":7400,"cs3sD4sG4sB4s1p0":7401,"cs3sD4sG3sB3s1p0":7402,"cs8sA":7403,"cs3sE6sE5sC6s1p0":7404,"cs3sB4sG4sD4s0p25":7405,"cs3sB4sG4sE4s0p5":7406,"cs3sB4sG4sG5s0p25":7407,"cs3sB4sG5sB5s1p0":7408,"cs3sB4sF5sG5s0p5":7409,"cs3sG4sBt4sC5s0p5":7410,"cs3sG4sBt4sCw5s0p5":7411,"cs3sC5sF4sC4s0p25":7412,"cs3sC5sF4sC4s0p5":7413,"cs3sC6sA5sE5s0p25":7414,"cs3sC6sA6sF":7415,"cs3sC6sA6sA5s0p25":7416,"cs3sC6sA5sC5s1p0":7417,"cs3sC6sA5sF5s0p5":7418,"cs3sB3sE4sGw4s0p75":7419,"cs3sE5sA5sCw6s0p25":7420,"cs3sE5sA4sA5s0p25":7421,"cs4sC5sE4sE5sGw":7422,"cs2sB4sG4s1p5":7423,"cs2sB4sG4s2p0":7424,"cs4sE4sE5sD4sD5s0p25":7425,"cs3sE5sGw5sGw4s0p25":7426,"cs3sE5sGw5sB5s0p5":7427,"cs3sE5sGw4sB4s1q3":7428,"cs3sE5sGw4sD5s1q3":7429,"cs3sB3sG3sC4s0p25":7430,"cs3sB3sG4sB4s2p0":7431,"cs2sC5sEt5s1p5":7432,"cs2sFw4sFw5s1p5":7433,"cs2sFw4sFw3s2p0":7434,"cs3sCw5sE5sB4s0p25":7435,"cs3sCw5sE5sE4s0p25":7436,"cs2sB3sD4s2p0":7437,"cs3sA4sB4sC5s0p25":7438,"cs3sGw3sB3sE4s0p5":7439,"cs3sGw3sB3sEt4s0p25":7440,"cs3sGw3sB2sE3s0p25":7441,"cs3sEt4sG4sBt4s1p0":7442,"cs3sEt4sG4sBt4s2p0":7443,"cs3sE6sC6sA5s0p5":7444,"cs3sE6sC7sE7s0p25":7445,"cs3sE6sC6sE5s1p0":7446,"cs3sE6sC6sE5s0p5":7447,"cs3sG5sG4sC5s0p25":7448,"cs3sG5sG4sE5s0p25":7449,"cs4sE4sA3sG":7450,"cs4sE4sA4sC5sE5s1p0":7451,"cs3sD5sG4sB4s0p25":7452,"cs3sD5sG5sB4s0p25":7453,"cs3sD5sG4sD4s0p25":7454,"cs4sE5sC5sG5sC6s0p25":7455,"cs4sD4sF4sD":7456,"cs3sB2sD3sG3s2p0":7457,"cs3sD5sD4sF4s0p25":7458,"cs3sA4sA5sF5s0p25":7459,"cs3sA4sA3sC4s0p5":7460,"cs3sA5sF5sD6s0p25":7461,"cs3sF5sA4sC5s0p5":7462,"cs3sC3sE3sC4s0p25":7463,"cs3sC3sE3sC4s0p5":7464,"cs3sC3sE3sG3s1p0":7465,"cs3sC3sE3sA3s0p5":7466,"cs3sB4sA4sB3s0p25":7467,"cs3sB4sA4sFw4s1p0":7468,"cs3sG4sC5sE4s0p5":7469,"cs3sG4sC5sE5s2p0":7470,"cs3sG4sC5sE4s2p5":7471,"cs3sD4sGw4sD5s1p0":7472,"cs3sGw4sE4sE5s0p25":7473,"cs3sGw4sE5sGw5s0p5":7474,"cs3sGw4sE5sGw5s1p0":7475,"cs3sF4sBt4sE5s0p25":7476,"cs3sF4sBt4sD5s1p0":7477,"cs3sGw3sC4sF4s2q3":7478,"cs4sC4sG3sG":7479,"cs3sCw4sE4sA4s0p75":7480,"cs3sCw4sF4sA4s0p5":7481,"cs3sCw4sF4sBt4s0p25":7482,"4sC5sEt5s0p5":7483,"4sC5sEt5sFw":7484,"cs3sB3sGw4sB4s0p75":7485,"cs3sD4sE4sD4s1q3":7486,"cs3sGw5sE5sB4s0p25":7487,"cs3sGw5sE6sGw6s0p25":7488,"cs4sB4sD5sA":7489,"cs4sB4sD5sFw5sB5s0p25":7490,"cs4sB4sD5sFw5sB5s1p0":7491,"cs5sC6sD":7492,"cs5sC5sA5sE":7493,"cs5sC5sE5sE":7494,"cs3sB5sG6sG5s0p5":7495,"cs3sA3sE4sG4s0p75":7496,"cs3sB4sB5sGw5s0p25":7497,"cs3sB4sB5sE5s1p0":7498,"cs3sB4sB5sGw5s0p5":7499,"cs3sB4sB3sG4s0p25":7500,"cs3sB4sB3sG4s0p5":7501,"cs3sB4sB3sGw4s0p25":7502,"cs3sG4sF4sB3s0p5":7503,"cs3sF5sG5sA5s0p25":7504,"cs3sGw5sB5sE6s3p0":7505,"cs3sGw4sF5sGw5s0p25":7506,"cs3sF5sB5sG5s0p5":7507,"cs3sF5sB4sCw5s1q3":7508,"cs3sF5sB5sD6s0p5":7509,"cs3sA4sD4sC5s0p25":7510,"cs3sA4sD5sG5s0p25":7511,"cs3sA4sD5sB4s0p5":7512,"cs3sA5sD6sA6s0p5":7513,"cs3sF5sF6sA5s0p5":7514,"cs3sF3sGw3sC4s0p25":7515,"cs3sF3sGw3sD4s0p25":7516,"cs3sF3sGw3sC4s1p0":7517,"cs3sF3sGw3sEt4s0p25":7518,"cs3sF3sGw3sD4s0p75":7519,"cs3sBt4sG4sCw5s0p25":7520,"cs3sBt4sG5sBt5s0p75":7521,"cs3sF5sGw5sF6s1p0":7522,"cs3sEt4sFw4sBt4s0p25":7523,"cs2sF3sF2s1p0":7524,"cs3sC5sGw4sGw":7525,"cs3sC5sGw4sC4s0p25":7526,"cs3sC5sGw4sC4s1q3":7527,"cs3sA5sA4sC5s0p25":7528,"cs3sA5sA6sC6s0p25":7529,"cs3sA5sA4sF5s0p25":7530,"cs3sA5sA6sC6s1p0":7531,"cs3sA3sF4sC4s0p25":7532,"cs3sA3sF4sA4s1q3":7533,"cs3sD6sF5sD5s0p5":7534,"5sCw6sE5s0p5":7535,"nsA1s2p5":7536,"cs3sE4sCw4sA4s1p0":7537,"cs3sG3sG3sA3s0p25":7538,"cs3sG3sG4sC4s0p5":7539,"cs4sB4sG4sC":7540,"cs4sB4sG5sG":7541,"cs2sB2sB1s0p5":7542,"cs3sA5sE5sE6s0p25":7543,"cs3sA5sE5sCw5s1q3":7544,"cs3sF6sF5sCw6s0p25":7545,"cs3sF6sF5sD6s0p5":7546,"cs4sE3sG3sB3sE4s0p25":7547,"cs3sEt4sC5sC4s2p0":7548,"cs2sE2sE3s2p0":7549,"cs2sE2sE3s1p5":7550,"cs2sE2sE3s3p0":7551,"cs2sE2sE3s2p5":7552,"cs3sFw4sA4sEt5s0p25":7553,"cs3sFw4sA4sFw5s0p25":7554,"cs3sFw4sA4sCw5s1q3":7555,"cs3sEt5sC5sC6s0p25":7556,"cs3sFw3sA3sD4s0p5":7557,"cs3sFw3sA3sC4s0p5":7558,"cs3sFw3sA3sEt4s0p25":7559,"cs4sD5sF4sF":7560,"cs5sG5sD6sB":7561,"cs5sG5sG4sF4sCw":7562,"cs3sE6sG6sG":7563,"cs3sE6sG5sB5s0p25":7564,"cs3sF6sD6sA6s0p25":7565,"cs3sF6sD6sB5s0p5":7566,"6sB5sGw6s0p25":7567,"cs3sBt4sE5sG4s1p0":7568,"cs3sBt4sE5sBt5s1p25":7569,"cs2sG5sBt4s1p0":7570,"cs3sC5sEt4sGw4s0p25":7571,"cs3sD5sA4sD4s0p25":7572,"cs3sB4sEt4sFw4s1q3":7573,"cs3sG6sG5sBt5s0p25":7574,"cs2sG4sBt3s0p5":7575,"cs3sE6sCw6sG5s1p5":7576,"cs3sE6sCw6sG5s2p0":7577,"cs3sD3sF3sB3s0p5":7578,"cs3sFw5sA5sE6s0p25":7579,"cs3sFw5sA4sA5s0p25":7580,"cs3sC5sFw5sA5s0p5":7581,"cs3sC5sFw4sEt5s0p5":7582,"cs3sA3sD4sA4s0p5":7583,"cs3sA3sD4sF4s0p5":7584,"cs3sA3sD4sB3s0p5":7585,"cs3sA3sD4sA4s1p5":7586,"cs3sEt5sFw5sEt6s0p5":7587,"cs3sFw5sC6sEt6s0p25":7588,"cs3sFw5sC6sEt5s0p25":7589,"cs2sA4sF5s1q3":7590,"cs2sA4sF4s0p75":7591,"cs3sB5sD5sG5s0p5":7592,"cs3sB5sD6sG6s0p5":7593,"cs2sB2sG3s1p75":7594,"cs3sB5sE6sE5s0p25":7595,"cs3sG5sD5sGw5s0p25":7596,"cs3sG5sD5sG4s0p25":7597,"cs3sF3sA3sF4s0p5":7598,"cs3sD6sD5sF5s0p5":7599,"cs3sD6sD7sF6s0p25":7600,"cs3sFw5sEt5sA5s0p25":7601,"cs4sA4sE5sE":7602,"cs4sA4sE5sG":7603,"cs4sA4sE4sC5sE5s0p75":7604,"cs4sA4sE4sE5sC5s0p5":7605,"cs4sA4sE4sC4sA3s0p5":7606,"cs4sD5sE5sF5sG5s0p25":7607,"2sGw2s1p0":7608,"5sG5sE5sG4s0p25":7609,"cs3sB5sB4sD5s0p5":7610,"cs3sF3sG3sD4s1p0":7611,"cs3sCw5sA5sA4s0p5":7612,"cs2sD5sBt4s1q3":7613,"5sB5sD6sD":7614,"cs3sB4sC5sG5s0p25":7615,"cs3sB4sC5sB4s1q3":7616,"cs3sA4sCw5sA5s1p0":7617,"cs3sA4sCw5sE5s1q3":7618,"cs3sA4sCw5sFw5s1p0":7619,"cs4sG4sE5sG5sE":7620,"cs4sG4sE5sC5sG5s0p25":7621,"cs4sC4sE4sC":7622,"cs2sE3sG3s0p75":7623,"cs2sG2sG1s0p5":7624,"cs3sD6sA6sF6s0p25":7625,"cs3sE4sD4sE3s0p25":7626,"cs3sE6sB5sGw5s0p25":7627,"cs3sA4sEt4sC4s0p25":7628,"cs3sA3sA3sBt3s0p25":7629,"cs4sG5sE5sG5sE":7630,"cs4sG5sE5sG5sF5s0p25":7631,"cs4sC6sE5sA":7632,"5s5p75":7633,"cs3sE4sBt4sC5s0p25":7634,"cs3sE4sBt4sFw5s0p25":7635,"cs2sFw6sFw5s1q3":7636,"cs2sFw6sFw7s0p25":7637,"cs2sFw6sFw5s0p75":7638,"cs2sF4sD4s2p0":7639,"cs2sF4sD5s1p5":7640,"cs2sGw6sGw7s0p25":7641,"cs3sGw3sD4sGw4s0p75":7642,"cs5sA4sC5sEt5sFw":7643,"cs2sG3sB2s0p5":7644,"cs2sG3sB3s1p75":7645,"cs3sC3sF3sA3s0p5":7646,"cs3sC3sF3sA3s1p0":7647,"cs2sC7sE6s1p0":7648,"cs2sC7sE7s0p5":7649,"cs2sC7sE6s3p0":7650,"cs2sC7sE7s2p0":7651,"cs3sG4sCw5sB4s0p25":7652,"cs3sG4sCw5sE5s1p0":7653,"cs3sA3sFw3sD4s1p0":7654,"cs3sGw5sD5sD6s0p25":7655,"cs3sGw5sD5sD6s0p75":7656,"cs3sGw5sD5sF5s1p5":7657,"cs4sE6sE7sE6sE":7658,"nsG3s6p0":7659,"nsG3s3p75":7660,"cs3sC5sB5sFw5s0p25":7661,"cs3sA5sFw5sC5s0p5":7662,"cs3sA5sFw6sA6s0p5":7663,"cs3sEt5sB5sEt6s0p25":7664,"cs4sE5sG5sC6sE6s1q6":7665,"cs3sF3sD4sF4s0p5":7666,"cs4sC4sE4sG4sC":7667,"cs3sBt3sD4sBt4s1p0":7668,"cs3sBt3sD4sBt4s0p75":7669,"cs4sA4sB4sA4sB4s0p25":7670,"cs4sA4sC5sE5sA5s0p5":7671,"cs4sD4sG4sB4sD5s0p5":7672,"cs4sD4sG4sB4sG5s0p25":7673,"cs4sD4sG4sB4sD5s2p0":7674,"cs2sG3sE4s1p5":7675,"cs3sE5sD5sC5s0p25":7676,"cs3sE5sD6sE6s1p0":7677,"cs3sG4sA4sG4s0p25":7678,"cs3sG4sA4sE5s0p25":7679,"cs2sEt3sEt4s0p75":7680,"cs3sF4sE4sD4s0p25":7681,"cs3sBt5sBt4sG5s0p25":7682,"cs3sBt5sBt4sFw5s0p25":7683,"cs4sF5sD5sF":7684,"cs4sF5sD5sBt":7685,"cs4sF5sD5sA4sA":7686,"cs3sG3sCw4sE4s0p25":7687,"cs3sG3sCw4sF4s0p25":7688,"cs3sGw5sF5sB4s0p25":7689,"cs5sE5sG":7690,"cs5sE5sF5sE5sC5sE5s0p25":7691,"cs2sC3sE2s0p25":7692,"cs2sC3sE3s2p0":7693,"cs3sEt5sA4sC5s0p25":7694,"cs3sEt6sEt5sFw5s0p5":7695,"cs3sBt4sCw4sF4s0p25":7696,"cs3sE5sCw6sE6s0p25":7697,"cs3sD6sG6sB6s0p25":7698,"cs3sGw4sCw4sE4s1q3":7699,"cs3sGw4sCw5sF5s1p0":7700,"cs3sGw3sCw4sF4s0p5":7701,"cs4sG5sB4sE":7702,"cs3sBt3sEt4sFw4s0p25":7703,"cs4sD4sFw4sD":7704,"cs4sE4sE5sE4sE4s0p25":7705,"cs6sB4sGw5sE6sB":7706,"cs6sA4sF":7707,"4sC5sB4sC5sB4s0p25":7708,"cs2sF3sB3s2p0":7709,"cs3sC3sG3sBt3s0p25":7710,"cs3sC3sG2sE2s1p0":7711,"cs3sA5sB5sC6s0p25":7712,"cs3sD4sBt4sG4s0p25":7713,"cs3sD4sBt3sG3s1p0":7714,"cs3sGw6sE7sB":7715,"cs3sGw6sE6sGw5s0p25":7716,"cs3sGw6sE7sB7s0p25":7717,"cs4sE4sC5sG":7718,"cs3sEt4sBt3sG4s0p5":7719,"cs3sFw4sD5sFw5s1p0":7720,"cs4sG3sBt3sE4sG4s0p5":7721,"cs4sG4sC5sE5sG5s1p0":7722,"cs4sC4sA4sB":7723,"cs4sC4sA3sE":7724,"cs4sC5sG4sEt":7725,"cs3sBt5sG5sG6s0p25":7726,"cs3sBt3sC4sG4s0p5":7727,"cs4sD5sC6sD5sD6s0p25":7728,"cs5sB4sC5sB4sC5sB4s0p25":7729,"cs2sE5sC5s1p5":7730,"cs2sA2sFw2s1q6":7731,"cs3sC6sG5sE5s0p25":7732,"cs4sC4sEt4sG":7733,"cs3sBt3sCw4sF":7734,"cs3sBt3sCw4sE4s0p25":7735,"cs3sBt3sCw4sBt4s0p25":7736,"cs3sBt6sBt5sE6s1p0":7737,"cs4sB4sF4sD":7738,"cs4sB5sEt6sA6sB6s0p25":7739,"cs2sE3sC3s1p0":7740,"cs2sE3sC4s3p0":7741,"cs2sE3sC3s3p0":7742,"cs3sG6sB5sG5s0p25":7743,"cs3sG3sA3sC4s0p5":7744,"cs3sA3sCw4sE3s0p25":7745,"cs3sF6sA6sA5s0p25":7746,"cs3sGw6sGw5sB5s0p25":7747,"cs4sCw5sF5sGw":7748,"cs2sC4sA3s0p75":7749,"cs3sB6sB5sD6s0p25":7750,"cs3sA3sB3sFw4s0p5":7751,"cs3sFw4sGw3sGw4s1p0":7752,"cs4sC3sEt3sG":7753,"cs3sCw6sCw5sBt5s0p25":7754,"cs4sF6sF7sC7sA":7755,"cs4sG4sBt4sE5sG5s0p75":7756,"cs3sE6sF7sE7s1q3":7757,"cs3sC3sEt3sC4s0p5":7758,"cs3sC3sEt3sC4s1p0":7759,"cs3sC3sEt3sGw3s1p0":7760,"cs3sEt5sBt4sG4s0p25":7761,"cs3sFw4sE4sC4s0p25":7762,"cs3sFw3sB3sEt3s0p25":7763,"cs4sG5sE5sC6sE6s0p25":7764,"cs4sG5sE5sC5sG4s2p0":7765,"cs4sC5sC4sE":7766,"cs4sC5sC5sF5sF4s1p0":7767,"cs4sD6sC6sD":7768,"cs4sD4sA4sC5sD5s0p25":7769,"cs4sD4sA4sC5sD5s1q3":7770,"cs3sCw6sA5sE5s0p25":7771,"cs4sB3sG4sD":7772,"cs2sB6sB5s0p75":7773,"cs2sB6sB5s1p5":7774,"cs2sD6sFw6s2p0":7775,"cs3sE5sBt5sE6s0p25":7776,"cs3sFw5sBt5sFw6s0p5":7777,"cs4sG5sD5sB4sG4s2p0":7778,"cs4sC6sC5sE5sG5s0p25":7779,"cs4sA4sA5sA4sA":7780,"cs4sD5sG5sF5sG5s0p25":7781,"cs4sD5sD4sB":7782,"cs4sD5sD6sF":7783,"cs4sF4sA3sC":7784,"cs3sG5sBt5sG6s0p25":7785,"cs4sA5sB5sG5sD5s0p25":7786,"cs4sD5sG5sB5sD6s0p25":7787,"cs3sCw4sFw3sEt4s0p25":7788,"cs4sEt5sD5sEt5sD5s1q6":7789,"cs4sEt5sD5sEt5sD5s1q12":7790,"cs4sCw4sE4sA":7791,"cs4sCw4sE4sA4sCw":7792,"7sGw7sB7sB6s0p25":7793,"cs2sC3sEt3s1p0":7794,"cs2sG6sG7s0p25":7795,"cs3sBt3sE4sG4s1p0":7796,"cs4sD5sB4sD":7797,"cs4sF4sD4sBt":7798,"cs4sEt3sG3sBt3sBt":7799,"cs4sEt3sG3sBt3sEt4s1q3":7800,"cs4sBt3sEt4sG4sBt4s0p25":7801,"cs4sE5sC5sG4sE4s0p5":7802,"cs4sE5sC5sG4sE4s1q3":7803,"cs4sD5sFw5sA5sC6s0p25":7804,"cs4sD5sFw5sA5sD6s1p0":7805,"cs4sD5sFw5sA5sC6s0p75":7806,"cs3sC6sEt5sFw5s2p0":7807,"cs3sA5sG5sF5s0p25":7808,"cs3sA5sG5sB4s1q3":7809,"cs4sG5sD6sG5sE6s0p25":7810,"cs4sG5sD5sF5sB4s1p0":7811,"cs4sC5sF5sGw":7812,"cs4sC5sEt5sGw5sC6s1p0":7813,"cs4sA5sA4sF5sCw":7814,"cs4sA6sE6sCw6sA5s0p5":7815,"cs4sA6sF6sC6sA5s0p25":7816,"cs4sD4sB4sFw4sEt4s0p25":7817,"cs4sD6sD5sF":7818,"cs4sB4sD5sG5sB5s0p5":7819,"cs2sF2sF3s2q3":7820,"cs3sC4sB3sC4s0p25":7821,"cs3sG5sF5sE5s0p25":7822,"cs4sA3sA4sC":7823,"cs4sGw4sB4sD5sGw5s0p25":7824,"cs4sE4sG4sC5sE5s2p0":7825,"cs4sC5sE5sG5sC6s0p5":7826,"cs2sC6sEt6s1p0":7827,"cs3sFw3sD4sA3s0p5":7828,"cs3sFw3sD4sFw4s0p5":7829,"cs4sG4sC4sE4sC5s0p25":7830,"cs4sD5sB4sG4sG5s0p5":7831,"cs3sCw5sF4sB4s1q3":7832,"cs3sCw5sFw4sA4s1q3":7833,"cs3sCw5sFw4sFw5s0p5":7834,"cs4sFw4sFw5sCw5sBt4s1p0":7835,"cs6sEt6sEt":7836,"3sC4sC3s0p25":7837,"cs3sC6sD6sFw5s0p25":7838,"cs3sA6sFw6sA5s0p25":7839,"cs3sGw6sB5sGw5s0p25":7840,"cs4sE7sCw7sEt":7841,"cs3sEt3sGw3sC4s0p5":7842,"cs4sC3sF3sGw":7843,"cs4sB4sD5sF5sB5s0p25":7844,"cs4sB4sD5sF5sG5s1p0":7845,"cs4sF5sG5sB5sD6s1p0":7846,"cs4sEt4sFw4sA4sB4s0p25":7847,"cs5sEt5sB4sE5sCw":7848,"cs2sC5sA5s3p0":7849,"cs2sD6sB5s1p5":7850,"cs3sC3sGw3sC4s0p5":7851,"cs2sBt3sEt4s0p75":7852,"cs3sCw3sEt3sBt3s1p0":7853,"cs4sF4sF5sD":7854,"cs4sEt4sGw4sC":7855,"cs4sEt4sGw4sC5sEt5s1p0":7856,"cs4sCw7sA6sE":7857,"cs3sFw4sBt4sD5s1p0":7858,"cs3sBt4sFw5sBt5s0p25":7859,"cs3sBt6sD6sBt5s0p5":7860,"cs4sA4sF5sA5sF":7861,"cs4sEt5sBt4sG4sD5s0p25":7862,"cs4sBt5sD6sF":7863,"cs4sBt3sCw4sE4sFw4s0p25":7864,"cs4sFw4sB3sEt":7865,"cs3sE5sC6sC5s0p25":7866,"cs6sB7sGw7sB6sBt7sG7sBt6s0p25":7867,"6s5q3":7868,"6s5p75":7869,"cs2sA3sB3s3p0":7870,"cs2sA3sCw4s0p75":7871,"cs4sD6sGw6sGw5sB5s0p5":7872,"cs3sCw7sA6sCw6s0p25":7873,"7sF6sBt6sD7sF6sBt6sD":7874,"7sG6sC7sE7sG6sC7sE":7875,"cs4sE4sG4sA4sCw5s0p5":7876,"cs8sF5sF4sA4sC5sF":7877,"cs4sE4sA4sC5sA5s0p25":7878,"cs4sD6sB5sG5sD5s2q3":7879,"cs4sC5sG4sE4sC4s2p0":7880,"cs4sD5sC5sG4sD4s2q3":7881,"cs4sBt4sC5sC4sE4s0p25":7882,"cs4sA4sEt5sFw5sC6s0p25":7883,"cs4sA4sEt5sFw5sC6s1p75":7884,"cs2sD2sA2s1p0":7885,"cs4sE5sBt5sE":7886,"cs4sE7sC7sG6sE6s0p5":7887,"cs4sG4sB4sE5sG5s0p5":7888,"cs4sC5sEt5sFw5sC6s0p25":7889,"7sD7sB6s1p0":7890,"cs4sE3sG3sC4sE4s2p0":7891,"cs3sE6sB6sE7s1p0":7892,"cs3sE6sB6sE7s2p0":7893,"cs4sE6sC6sG5sE5s0p5":7894,"cs4sC6sE5sG5sE6s0p25":7895,"nsE5s5q12":7896,"cs3sB3sFw4sB4s0p25":7897,"cs3sG3sD4sF4s0p75":7898,"cs3sD4sEt4sD4s0p25":7899,"cs4sF3sF4sF4sF":7900,"cs4sFw6sA6sC":7901,"cs4sGw4sE4sE5sC":7902,"cs6sFw6sFw7sEt7sF6sF7sD7s0p25":7903,"cs4sC5sB4sC5sB4s1q12":7904,"cs4sC5sB4sC5sB4s1q6":7905,"cs2sA3sFw4s1p5":7906,"cs4sE4sFw4sBt":7907,"cs3sFw5sG5sFw5s0p25":7908,"cs4sG5sF5sB4sB5s0p25":7909,"cs4sA2sG2sCw3sE3s0p5":7910,"cs4sA3sCw4sE4sA4s0p5":7911,"7sE7sC7s0p5":7912,"cs4sF3sGw3sB3sD4s0p25":7913,"cs4sBt3sC4sG4sBt4s0p25":7914,"cs4sCw6sGw5sF5sCw5s1p0":7915,"cs4sFw5sBt5sCw6sFw6s0p25":7916,"cs4sB4sG4sE4sC4s0p5":7917,"cs4sC4sE4sA4sC5s1p0":7918,"cs4sC5sA4sFw4sC4s0p5":7919,"cs4sF5sGw5sB5sF6s0p5":7920,"cs4sBt4sG4sE4sBt3s0p5":7921,"cs4sD5sA5sD5sB5s0p25":7922,"cs4sD5sG4sG5sB4s0p5":7923,"cs2sB2sGw2s1q6":7924,"cs2sD2sD3s2q3":7925,"cs2sBt1sBt2s1p5":7926,"cs3sF5sEt5sF5s0p25":7927,"cs4sE4sF4sE4sD4s0p25":7928,"cs3sBt3sD4sF3s0p25":7929,"cs4sB5sA5sGw5sA5s0p25":7930,"cs4sEt6sGw6sC":7931,"cs4sBt4sCw5sFw":7932,"cs4sBt6sBt5sCw6sF6s1p0":7933,"cs4sE4sG4sE5sC5s1p0":7934,"cs4sE5sGw4sC5sGw5s0p75":7935,"cs4sG4sE5sD5sB4s0p5":7936,"5sC6sEt6sA5sCw6sE":7937,"cs4sG5sE6sC6sE5s0p25":7938,"cs4sFw5sA5sD6sFw6s0p25":7939,"cs10sG":7940,"cs4sCw4sCw3sF3sGw3s0p5":7941,"cs4sCw5sGw4sCw4sF4s1p0":7942,"cs4sG3sA3sE4sG4s0p25":7943,"nsG4s4p25":7944,"cs2sB5sGw5s4p0":7945,"4sB3sD5s0p5":7946,"cs4sE3sFw3sBt":7947,"cs4sG2sCw3sEt3sG3s0p25":7948,"cs4sA3sG3sCw4sE4s0p5":7949,"cs5sD4sE4sD4sE4sD4s0p25":7950,"cs5sA5sE6sC7sA":7951,"cs4sG3sBt3sD4sD":7952,"cs4sG3sBt3sCw4sG4s0p25":7953,"cs4sGw4sB4sCw5sGw5s1p0":7954,"cs4sC8sG7sE7sC7s0p5":7955,"cs2sG1sB1s1p0":7956,"cs2sD2sCw2s0p25":7957,"cs2sGw1sGw2s1p5":7958,"cs3sA2sEt2sFw":7959,"cs3sA5sB4sG5s1q3":7960,"cs3sGw7sF7sE7s0p25":7961,"cs4sG7sE7sC7sG6s0p5":7962,"cs4sG2sC3sE3sG3s0p25":7963,"cs4sC5sB4sG4sB4s0p25":7964,"cs3sBt7sF7sBt6s0p25":7965,"cs4sD4sE4sG4sD5s0p25":7966,"cs5sC5sA5sE6sC":7967,"cs5sC5sE5sE5sF5sE5s0p25":7968,"cs5sG5sD6sB6sG5sD":7969,"cs6sB4sGw5sE6sB4sGw":7970,"cs5sEt5sB4sE5sCw5sFw5s0p25":7971,"11q3":7972,"375":7973,"3q6":7974,"7q24":7975,"9s":7976,"C7s0p25":7977,"cs6sB5sGw":7978,"cs9s":7979,"4s3p25":7980,"5s7q3":7981,"5s37q12":7982,"3s4p5":7983,"nsG4s4p0":7984,"nsG6s1p25":7985,"nsG2s1p5":7986,"nsG1s0p25":7987,"nsG4s4p5":7988,"nsE5s1q6":7989,"nsE6s2p5":7990,"nsE6s4p0":7991,"nsE4s5p75":7992,"nsC2s1q3":7993,"nsC6s3p0":7994,"nsC4s4q3":7995,"nsC2s1p5":7996,"nsC7s1p5":7997,"nsC4s7q3":7998,"nsC3s4p0":7999,"nsC2s4p0":8000,"nsC5s5q6":8001,"nsC4s6p0":8002,"6s4p5":8003,"6s7q6":8004,"nsF7s1q3":8005,"nsF4s4p0":8006,"nsF5s4p0":8007,"nsF4s2p75":8008,"nsF5s3p5":8009,"nsF3s2p75":8010,"nsF4s5q3":8011,"nsB6s1p5":8012,"nsB4s2p5":8013,"nsB5s4q3":8014,"nsB4s2p75":8015,"nsB5s2p25":8016,"nsB3s1q12":8017,"nsB4s5p0":8018,"nsB1s2p0":8019,"nsB3s6p0":8020,"nsD5s1q12":8021,"nsD2s2p0":8022,"nsD4s2p25":8023,"nsA4s1q6":8024,"nsA6s1p25":8025,"nsA1s0p25":8026,"cs2sE5sGw":8027,"cs2sE3sBt":8028,"cs2sE3sD4s0p25":8029,"cs2sE4sEt4s0p25":8030,"cs2sE4sB4s1p0":8031,"cs2sE5sB5s0p5":8032,"cs2sE6sBt5s0p25":8033,"cs2sE7sE7s0p25":8034,"cs2sE4sA4s0p75":8035,"cs2sE6sB5s0p5":8036,"cs2sE7sA6s0p25":8037,"cs2sE4sA4s1p5":8038,"cs2sE3sB2s0p25":8039,"cs2sE3sC3s0p5":8040,"cs2sE4sA3s1p0":8041,"cs2sE3sGw3s1p0":8042,"cs2sE4sA4s2p0":8043,"cs2sE5sC6s2p0":8044,"cs2sE2sC3s0p5":8045,"cs2sE4sGw4s0p75":8046,"cs2sE4sGw4s1p5":8047,"cs2sE3sA3s1q3":8048,"cs2sE5sC4s0p25":8049,"cs2sE5sA5s2p0":8050,"cs2sE4sGw4s2p0":8051,"cs2sE5sBt4s0p5":8052,"cs2sE5sBt4s1p0":8053,"cs2sE6sEt7s0p25":8054,"cs2sE6sF5s1q3":8055,"cs2sE6sEt6s1q3":8056,"cs2sE5sGw5s2p0":8057,"cs2sE5sCw6s1q3":8058,"cs2sE2sB2s0p5":8059,"cs2sE6sFw5s1q3":8060,"cs2sE7sGw6s1q3":8061,"cs2sE4sBt4s1p5":8062,"cs2sE4sCw4s1p0":8063,"cs2sE4sBt3s3p0":8064,"cs2sE4sCw4s2p0":8065,"cs2sE6sGw5s1p5":8066,"cs2sE2sGw2s1p0":8067,"4sE4sFw4s0p25":8068,"4sE3s3p0":8069,"4sE4s1q12":8070,"4sE5s1q6":8071,"4sE4s1q6":8072,"4sE5sA5sG":8073,"4sE4sGw4s1p5":8074,"4sE4sFw4sG4s0p25":8075,"4sE5sCw5s1p0":8076,"4sE5sG5sG":8077,"cs2sC4sBt4s0p25":8078,"cs2sC3sG3s1p0":8079,"cs2sC5sA5s1q3":8080,"cs2sC5sA5s0p75":8081,"cs2sC3sE3s1q3":8082,"cs2sC6sF6s1q3":8083,"cs2sC4sGw3s0p5":8084,"cs2sC4sG4s1p5":8085,"cs2sC5sA5s2p0":8086,"cs2sC5sBt4s0p5":8087,"cs2sC5sF4s0p5":8088,"cs2sC6sFw6s0p5":8089,"cs2sC5sA5s1p5":8090,"cs2sC6sGw5s0p5":8091,"cs2sC7sGw6s1q3":8092,"cs2sC3sF3s1p5":8093,"4sC4sG4s0p25":8094,"4sC4sA4s0p25":8095,"4sC5sA5s0p25":8096,"4sC5sF5s0p25":8097,"4sC3s2p0":8098,"4sC5sEt5s0p25":8099,"4sC5sF5s0p5":8100,"4sC3sE3s0p5":8101,"4sC5sD4s1q3":8102,"5sE5sF":8103,"5sE5sGw":8104,"5sE4sC5s0p5":8105,"5sE5sC5s0p5":8106,"5sE6sGw5s0p25":8107,"5sE5s1q12":8108,"5sE5sD5sC5s0p25":8109,"cs2sB5sG":8110,"cs2sB3sGw":8111,"cs2sB7sA":8112,"cs2sB5sG5s0p5":8113,"cs2sB3sFw3s0p25":8114,"cs2sB7sB6s0p25":8115,"cs2sB5sFw5s0p5":8116,"cs2sB5sGw5s1q3":8117,"cs2sB4sFw4s1q3":8118,"cs2sB4sGw4s1p5":8119,"cs2sB4sGw4s2p0":8120,"cs2sB2sA2s0p25":8121,"cs2sB6sFw6s1q3":8122,"cs2sB3sC3s1q3":8123,"cs2sB4sF4s2p0":8124,"cs2sB6sF7s0p25":8125,"cs2sB2sF2s0p25":8126,"cs2sB2sE3s0p25":8127,"cs2sB3sGw3s2p0":8128,"cs2sB4sFw5s1q3":8129,"cs2sB4sA5s1p0":8130,"4sB4s3p0":8131,"4sB3sD4s0p25":8132,"4sB4sE5s0p25":8133,"4sB3sG3s0p25":8134,"4sB4sD5s1p0":8135,"4sB4s1p75":8136,"4sB4s2p5":8137,"4sB4sE5s1p0":8138,"4sB3sEt4s0p25":8139,"4sB4sF5s0p5":8140,"4sB3s1p25":8141,"4sB4sD5sF":8142,"4sB3sB4s0p25":8143,"4sG4sA4s0p25":8144,"4sG5sA5s0p25":8145,"4sG4sC4s0p25":8146,"4sG4sB4s1p0":8147,"4sG4sEt5s0p5":8148,"nsGw7s1p0":8149,"nsGw1s2p0":8150,"nsGw2s1p25":8151,"cs2sG3sC":8152,"cs2sG5sF":8153,"cs2sG5sA4s0p25":8154,"cs2sG4sCw4s0p25":8155,"cs2sG4sA3s0p25":8156,"cs2sG4sF5s0p25":8157,"cs2sG3sF4s0p25":8158,"cs2sG6sA5s0p5":8159,"cs2sG4sGw4s1q3":8160,"cs2sG5sF6s0p25":8161,"cs2sG6sE6s1q3":8162,"cs2sG5sGw5s1q3":8163,"cs2sG4sBt3s0p25":8164,"cs2sG6sC6s0p5":8165,"cs2sG6sD7s0p25":8166,"cs2sG5sCw6s0p5":8167,"cs2sG5sD5s1p0":8168,"cs2sG7sF7s0p25":8169,"cs2sG4sEt5s0p5":8170,"cs2sG6sB6s0p5":8171,"cs2sG6sF6s1q3":8172,"cs2sG2sB2s0p25":8173,"cs2sG6sE6s1p0":8174,"cs2sG4sEt4s1q3":8175,"cs2sG6sE7s0p25":8176,"cs2sG6sBt5s1p0":8177,"cs2sG3sFw3s1q3":8178,"cs2sG4sE5s1p5":8179,"cs2sG4sF4s2p0":8180,"cs2sG3sEt3s0p5":8181,"cs2sG3sD3s0p5":8182,"cs2sG4sD4s0p75":8183,"cs2sG6sBt5s1q3":8184,"cs2sG3sF3s1q3":8185,"cs2sG2sCw3s0p5":8186,"cs2sG2sBt2s0p5":8187,"cs2sG6sEt6s2p0":8188,"cs2sG1sD2s0p5":8189,"cs2sD4sD4s0p25":8190,"cs2sD3sB3s0p25":8191,"cs2sD2sG":8192,"cs2sD5sE5s1p0":8193,"cs2sD6sGw6s0p25":8194,"cs2sD5sG5s1p0":8195,"cs2sD5sA5s1q3":8196,"cs2sD3sB3s1p0":8197,"cs2sD4sC4s1q3":8198,"cs2sD3sBt3s0p25":8199,"cs2sD3sD3s0p25":8200,"cs2sD4sCw4s1q3":8201,"cs2sD7sBt6s0p25":8202,"cs2sD3sB3s1q3":8203,"cs2sD3sA3s1q3":8204,"cs2sD5sGw4s0p5":8205,"cs2sD4sFw3s0p5":8206,"cs2sD3sG3s0p75":8207,"cs2sD6sGw5s1q3":8208,"cs2sD6sCw6s1q3":8209,"cs2sD6sEt7s0p25":8210,"cs2sD1sB":8211,"cs2sD3sG3s1p5":8212,"cs2sD3sCw3s1q3":8213,"cs2sD4sFw4s2p0":8214,"cs2sD7sB6s0p5":8215,"cs2sD2sF2s0p5":8216,"cs2sA3sG":8217,"cs2sA3sD":8218,"cs2sA4sG4s0p5":8219,"cs2sA4sB3s0p25":8220,"cs2sA7sA":8221,"cs2sA6sA6s0p25":8222,"cs2sA2sC":8223,"cs2sA2sG":8224,"cs2sA4sB4s1p0":8225,"cs2sA2sF":8226,"cs2sA4sGw4s1q3":8227,"cs2sA5sD6s1p0":8228,"cs2sA5sE6s0p5":8229,"cs2sA3sG4s0p25":8230,"cs2sA6sCw7s0p25":8231,"cs2sA2sD3s0p5":8232,"cs2sA3sF4s1q3":8233,"cs2sA4sE4s1p5":8234,"cs2sA6sF6s0p5":8235,"cs2sA3sD4s1q3":8236,"cs2sA3sFw3s1q3":8237,"cs2sA4sBt4s1q3":8238,"cs2sA3sF4s0p75":8239,"cs2sA3sCw3s0p25":8240,"cs2sA5sD5s0p75":8241,"cs2sA7sB7s0p25":8242,"cs2sA5sFw6s0p5":8243,"cs2sA5sC5s0p75":8244,"cs2sA4sFw4s1p5":8245,"cs2sA4sCw5s1p5":8246,"cs2sA2sC3s1p0":8247,"cs2sA2sCw3s0p5":8248,"cs2sA2sF3s0p5":8249,"5sC6sGw":8250,"5sC5sB4s0p25":8251,"5sC5sEt5s1p0":8252,"5sC6sG5sE5s0p25":8253,"nsEt5s2q3":8254,"nsEt6s1p25":8255,"nsEt3s1p25":8256,"nsFw6s1p5":8257,"nsFw5s1p25":8258,"nsFw4s1p75":8259,"nsFw5s2p5":8260,"nsFw5s1q6":8261,"nsFw2s0p75":8262,"nsFw4s2p75":8263,"nsFw3s2p75":8264,"cs2sF5sGw4s0p25":8265,"cs2sF4sE4s1q3":8266,"cs2sF5sG5s1p0":8267,"cs2sF6sGw5s0p25":8268,"cs2sF6sA5s0p5":8269,"cs2sF6sB5s1q3":8270,"cs2sF5sB4s1p0":8271,"cs2sF3sB2s0p25":8272,"cs2sF6sA5s1q3":8273,"cs2sF6sA6s0p5":8274,"cs2sF4sC5s1p5":8275,"cs2sF5sA5s0p75":8276,"cs2sF5sGw4s1q3":8277,"cs2sF4sG4s1p5":8278,"cs2sF4sC4s1p5":8279,"cs2sF5sBt5s1q3":8280,"cs2sF3sC4s3p0":8281,"cs2sF7sD7s1q3":8282,"4sA4sF4s0p25":8283,"4sA4sC5s0p5":8284,"4sA4sBt4s0p25":8285,"4sA4sFw4s0p25":8286,"4sA4s1q6":8287,"4sA5sG5sA5s0p25":8288,"4sA4sGw4sA4s0p25":8289,"4sD5sG":8290,"4sD5sFw":8291,"4sD5sF5s0p25":8292,"4sD5sB4s0p25":8293,"4sD5s1p25":8294,"4sD4s1p75":8295,"4sD5s1q12":8296,"4sD4sBt3s0p25":8297,"4sD4sB3s1p5":8298,"5sB4sGw":8299,"5sB5sD6s0p25":8300,"5sB4sB3s0p25":8301,"5sB4sCw5s0p25":8302,"5sB5s1p25":8303,"5sB5sE6s0p25":8304,"5sB4s1q12":8305,"nsBt5s1p25":8306,"nsBt3s1p25":8307,"nsBt5s3p5":8308,"4sF3s1q3":8309,"4sF5sD":8310,"4sF4sGw":8311,"4sF4sBt":8312,"4sF5sA5s0p25":8313,"4sF4sA4s0p5":8314,"4sF5s1p25":8315,"4sF4sA3s0p25":8316,"4sF3s3p0":8317,"4sF5sF4s0p25":8318,"4sF5s2p75":8319,"5sG4sEt4s0p25":8320,"5sG5sA5s0p5":8321,"5sG5sA5s1p0":8322,"5sG5sG6s1p0":8323,"5sG3sC4sC":8324,"nsCw5s2p5":8325,"nsCw6s3p0":8326,"5sA5sFw":8327,"5sA5sCw":8328,"5sA4sE4s0p5":8329,"5sA4sE5s0p25":8330,"5sA5s3p0":8331,"5sA5sG5s1q3":8332,"5sA5s2p5":8333,"5sA5sB5s1q3":8334,"5sA5sC6s0p75":8335,"5sA5s2p75":8336,"3sC4sG4s0p25":8337,"3sC3s0p75":8338,"3sC4sG3s0p25":8339,"3sC3sG2s1p0":8340,"cs3sE3sD":8341,"cs3sE6sEt":8342,"cs3sE7sFw":8343,"cs3sE5sF5sG5s0p25":8344,"cs3sE7sC7sE":8345,"cs3sC3sC":8346,"cs3sC2sE":8347,"cs3sC3sGw3sC4s0p25":8348,"cs3sC6sCw6sA5s0p25":8349,"cs3sC5sBt4sC5s0p25":8350,"cs3sC6sCw6sBt5s0p25":8351,"cs3sC7sD7sC7s0p25":8352,"5sD4s0p5":8353,"5sD6sG":8354,"5sD4sF4s0p25":8355,"5sD5sG4s0p25":8356,"5sD5sF5s1q3":8357,"5sD6sBt5s1p0":8358,"5sF4s0p75":8359,"5sF4s2p0":8360,"5sF5sCw":8361,"5sF6s2p0":8362,"5sF5sD5s1q3":8363,"5sF5s1q12":8364,"5sF5sG5sF":8365,"6sE5sGw5s0p25":8366,"6sE6sA5s0p25":8367,"6sE5sBt5s0p25":8368,"6sE6sFw6s0p25":8369,"6sE7sGw":8370,"6sE7sCw":8371,"6sE5s4q3":8372,"6sE6sE5s0p25":8373,"6sE7sCw7s0p25":8374,"7s1p75":8375,"7s4q3":8376,"4sGw4sBt":8377,"4sGw4sE4s0p25":8378,"4sGw4sE5s0p25":8379,"4sGw4sBt4s0p25":8380,"4sGw4sFw4s0p25":8381,"4sGw4sB4s0p5":8382,"4sGw4s2p5":8383,"4sGw4sG4sB":8384,"4sGw4sGw5s0p5":8385,"cs2sGw3sE":8386,"cs2sGw3sD4s0p25":8387,"cs2sGw4sFw4s0p25":8388,"cs2sGw6sG6s0p25":8389,"cs2sGw4sF4s1p0":8390,"cs2sGw6sEt6s0p25":8391,"cs2sGw5sF5s0p5":8392,"cs2sGw2sD3s0p25":8393,"cs2sGw5sA5s1q3":8394,"cs2sGw3sFw3s0p25":8395,"cs2sGw5sF6s0p25":8396,"cs2sGw5sF5s1p0":8397,"cs2sGw6sB5s1q3":8398,"cs2sGw5sG6s0p25":8399,"cs2sGw3sC4s2p0":8400,"cs2sGw4sB4s0p75":8401,"cs2sGw6sB6s0p5":8402,"cs2sGw6sF6s1q3":8403,"cs2sGw3sE4s0p75":8404,"cs2sGw4sE4s2p0":8405,"cs2sGw4sEt4s1q3":8406,"cs2sGw6sFw6s1q3":8407,"cs2sGw7sFw7s0p25":8408,"cs2sGw3sC3s1q3":8409,"cs2sGw4sEt5s1q3":8410,"cs2sGw3sB3s0p75":8411,"cs2sGw6sEt6s1q3":8412,"cs2sGw4sE5s2p0":8413,"cs2sGw6sD7s0p5":8414,"cs2sGw3sF3s1q3":8415,"cs2sGw6sEt6s0p5":8416,"cs2sGw3sF4s1p5":8417,"cs3sB4sBt":8418,"cs3sB6sCw":8419,"cs3sB2sE":8420,"cs3sB5sE5sC5s0p25":8421,"cs3sB2sGw":8422,"cs3sB6sEt6sB5s0p25":8423,"cs3sB7sFw7sB6s0p25":8424,"3sB4s2p0":8425,"3sB3sE4s1p0":8426,"3sB2s2p0":8427,"6sC5s0p5":8428,"6sC5s1p0":8429,"6sC6sC":8430,"6sC6sE6s0p25":8431,"6sC6sB5s0p25":8432,"6sC7sD":8433,"6sC6sG5s0p5":8434,"6sC6s1q6":8435,"6sC7s1p75":8436,"cs3sG2sD":8437,"cs3sG2sF":8438,"cs3sG5sC6sE5s0p25":8439,"cs3sG6sCw6sCw7s0p25":8440,"cs3sG4sCw5sE5s0p75":8441,"cs3sG6sCw6sCw":8442,"3sG4s1q3":8443,"3sG4sB":8444,"3sG3sF":8445,"3sG4s1p25":8446,"3sG4s1p75":8447,"3sD4sG4s0p5":8448,"3sD3s1p5":8449,"3sD4sF4s0p5":8450,"3sD3s3p0":8451,"3sD4s1p75":8452,"3sD3sC3s0p5":8453,"cs2sEt4sCw5s0p25":8454,"cs2sEt5sEt5s0p25":8455,"cs2sEt4sB4s0p5":8456,"cs2sEt6sA5s0p25":8457,"cs2sEt6sG6s0p25":8458,"cs2sEt4sE4s1q3":8459,"cs2sEt6sEt6s0p25":8460,"cs2sEt5sE5s1q3":8461,"cs2sEt5sG5s1p0":8462,"cs2sEt4sA4s1q3":8463,"cs2sEt6sA5s0p5":8464,"cs2sEt5sB4s1q3":8465,"cs2sEt4sGw4s1p0":8466,"cs2sEt4sGw4s1q3":8467,"cs2sEt3sD3s0p25":8468,"cs2sEt3sGw3s1p0":8469,"cs2sEt6sB6s0p5":8470,"cs2sEt5sGw4s1q3":8471,"cs2sEt3sC3s1q3":8472,"cs2sEt6sGw5s1q3":8473,"cs2sEt6sGw6s0p5":8474,"cs2sEt5sFw5s2p0":8475,"cs2sEt3sFw3s1p0":8476,"cs2sEt5sG4s0p75":8477,"cs2sEt5sD5s1q6":8478,"cs2sEt6sC7s1p5":8479,"cs2sBt4sG":8480,"cs2sBt5sE5s0p25":8481,"cs2sBt4sF4s0p5":8482,"cs2sBt6sC7s0p25":8483,"cs2sBt5sE5s1q3":8484,"cs2sBt5sA5s1q3":8485,"cs2sBt5sF6s0p25":8486,"cs2sBt4sC4s1q3":8487,"cs2sBt5sD6s0p5":8488,"cs2sBt4sF5s0p5":8489,"cs2sBt5sE6s0p5":8490,"cs2sBt5sD5s1p0":8491,"cs2sBt2sD3s0p5":8492,"cs2sBt3sE4s0p75":8493,"cs2sBt3sF4s1q3":8494,"cs2sBt5sEt5s1q3":8495,"cs2sBt4sG5s1p0":8496,"cs2sBt6sC7s1q3":8497,"cs2sBt4sG5s1q3":8498,"cs2sBt5sCw5s1p5":8499,"cs2sBt6sBt5s1p5":8500,"cs2sBt2sE2s0p25":8501,"cs3sA6sB":8502,"cs3sA6sCw":8503,"cs3sA5sC6sE":8504,"cs3sA7sC8s":8505,"cs3sA7sA6sC7s0p25":8506,"4sEt3s0p5":8507,"4sEt3s1q3":8508,"4sEt4sC5s0p25":8509,"4sEt5sFw5s0p25":8510,"4sEt4sFw4s0p25":8511,"4sEt5s1p75":8512,"4sEt5sFw5s1p0":8513,"4sEt5sB4s1p0":8514,"4sEt5sEt4s0p25":8515,"4sEt3sFw3sA":8516,"cs3sF3sCw":8517,"cs3sF7sC":8518,"cs3sF2sG":8519,"cs3sF7sGw":8520,"cs3sF4sC5sE5s1p0":8521,"cs3sF6sG6sD6s0p25":8522,"cs3sF6sFw6sE6s0p25":8523,"cs2sFw4sC5s1p0":8524,"cs2sFw5sFw5s0p25":8525,"cs2sFw4sB4s0p5":8526,"cs2sFw4sCw4s0p25":8527,"cs2sFw3sD4s1p0":8528,"cs2sFw4sD4s0p5":8529,"cs2sFw5sE5s1q3":8530,"cs2sFw6sBt5s0p25":8531,"cs2sFw4sBt4s0p5":8532,"cs2sFw5sEt6s0p25":8533,"cs2sFw5sC6s1q3":8534,"cs2sFw5sA4s1p0":8535,"cs2sFw4sB4s0p75":8536,"cs2sFw3sE3s1q3":8537,"cs2sFw5sEt5s1q3":8538,"cs2sFw6sA6s1q3":8539,"cs2sFw4sEt4s0p75":8540,"cs2sFw5sCw5s0p5":8541,"6sB6sC7s0p25":8542,"6sB6sGw6s0p25":8543,"4sBt4sFw4s0p25":8544,"4sBt4sCw5s0p25":8545,"4sBt4sE5s2q3":8546,"5sGw4sF":8547,"5sGw5s1q12":8548,"5sGw5sB5s1q3":8549,"5sGw5sB5s0p75":8550,"4sCw4sE4s1p0":8551,"4sCw5sE5s1p0":8552,"4sCw5sA4s1p0":8553,"4sCw5sFw5s1p0":8554,"6sA7s0p25":8555,"6sA6s0p75":8556,"6sA6sG6s0p25":8557,"6sA5sF6s0p25":8558,"6sA6s1q12":8559,"4sFw3s1p0":8560,"4sFw5s0p75":8561,"4sFw4sA4s0p25":8562,"4sFw4s3p0":8563,"4sFw4sC5s0p5":8564,"4sFw4sBt4s0p25":8565,"4sFw5s1q6":8566,"cs2sCw4sE5s0p25":8567,"cs2sCw4sB3s0p25":8568,"cs2sCw5sG5s0p5":8569,"cs2sCw4sFw4s0p5":8570,"cs2sCw5sF5s1p0":8571,"cs2sCw6sE6s1q3":8572,"cs2sCw3sC3s0p25":8573,"cs2sCw5sG4s0p5":8574,"cs2sCw7sB6s0p25":8575,"cs2sCw5sA4s1p0":8576,"cs2sCw4sGw3s0p25":8577,"cs2sCw7sD7s0p25":8578,"cs2sCw4sA3s1q3":8579,"cs2sCw7sF6s0p25":8580,"cs2sCw4sFw3s0p25":8581,"cs2sCw5sE4s0p25":8582,"cs2sCw4sBt3s0p5":8583,"cs2sCw6sE6s1p0":8584,"cs2sCw6sFw6s0p5":8585,"cs2sCw6sBt5s0p5":8586,"cs2sCw4sF4s2p0":8587,"cs2sCw6sE5s0p5":8588,"cs2sCw5sF5s0p75":8589,"cs2sCw4sBt3s1q3":8590,"cs2sCw4sEt3s1q3":8591,"cs3sD3sBt":8592,"cs3sD2sG":8593,"cs3sD7sCw":8594,"cs3sD5sE5sF5s0p25":8595,"cs3sD6sEt6sB5s0p25":8596,"cs3sD4sD5sF4s0p25":8597,"5sFw6s0p75":8598,"5sFw5s3p0":8599,"5sFw5sEt5s0p25":8600,"5sFw4sEt5s0p25":8601,"5sFw6sBt5s0p25":8602,"3sF4s2p0":8603,"3sF4s3p0":8604,"3sF4sD4s0p25":8605,"3sF4s1p25":8606,"6sD5s0p5":8607,"6sD6sB6s0p25":8608,"6sD6sEt6s0p25":8609,"6sD6s1q6":8610,"6sD7s1p5":8611,"6sG6sE":8612,"6sG6s1q12":8613,"5sEt5sF":8614,"5sEt5s2p0":8615,"5sEt5sA5s0p25":8616,"5sEt6sC6s0p25":8617,"5sEt5s1p75":8618,"3sA4s0p5":8619,"3sA4s1p0":8620,"3sA3sG":8621,"3sA3s2p0":8622,"3sA3s1p5":8623,"3sA2sA":8624,"3sA3sF4s0p75":8625,"6sF6sB":8626,"6sF6s1p5":8627,"6sF6sA6s1p0":8628,"5sBt6s0p25":8629,"5sBt4s0p75":8630,"5sBt4s2p0":8631,"5sBt5sEt":8632,"5sBt4sG4s0p25":8633,"5sBt5s2p0":8634,"5sBt5sA5s0p25":8635,"5sBt5sC6s0p25":8636,"5sBt4sCw5s0p25":8637,"5sBt5sFw5s1p0":8638,"5sCw4s1p5":8639,"5sCw6sA":8640,"5sCw5sA5s0p25":8641,"5sCw6sA5s0p5":8642,"5sCw5sFw4s0p25":8643,"cs3sGw4sA":8644,"cs3sGw5sG":8645,"cs3sGw3sG":8646,"cs3sGw3sA":8647,"cs3sGw5sCw":8648,"cs3sGw7sE":8649,"cs3sGw3sFw":8650,"cs3sGw2sB":8651,"cs3sGw6sF6sA6s0p25":8652,"cs4sE4sEt":8653,"cs4sE5sEt":8654,"cs4sE4sB4sD":8655,"cs4sE7sD7sB":8656,"cs4sE4sB3sG":8657,"cs4sE7sC7sE":8658,"cs2sE5sE4s3p0":8659,"cs2sE5sE4s1q12":8660,"cs2sE5sE6s1p75":8661,"cs3sEt5sE":8662,"cs3sEt3sF":8663,"cs3sEt7sEt":8664,"cs3sEt7sFw":8665,"cs3sEt6sC6sA5s0p25":8666,"cs3sEt4sC5sEt5s1p0":8667,"cs3sFw3sG":8668,"cs3sFw6sF":8669,"cs3sFw2sC":8670,"cs3sFw7sBt":8671,"cs3sFw5sF5sG5s0p25":8672,"cs3sFw5sE5sG5s0p25":8673,"cs3sFw4sCw5sE5s0p25":8674,"cs3sFw3sG3sB3s0p25":8675,"cs3sFw5sCw6sE5s0p5":8676,"3sGw2s0p5":8677,"cs4sG6sC":8678,"cs4sG3sF":8679,"cs4sG6sG":8680,"cs4sG2sE":8681,"cs4sG3sE3sG":8682,"cs4sG4sF4sF":8683,"cs4sG4sCw4sE":8684,"cs4sG4sFw4sE":8685,"cs4sG4sA4sE":8686,"6sGw5sC6s0p25":8687,"6sGw7sE":8688,"6sGw5sE6s0p25":8689,"6sGw5sC5s1p0":8690,"cs4sC7sD":8691,"cs4sC5sC6sE":8692,"cs4sC6sEt6sFw":8693,"cs4sC5sBt4sE":8694,"cs3sBt4sA":8695,"cs3sBt6sC":8696,"cs3sBt6sA":8697,"cs3sBt5sFw":8698,"cs3sBt5sEt":8699,"cs3sBt7sE":8700,"cs3sBt2sG":8701,"cs3sBt5sGw5sB5s0p25":8702,"cs3sBt6sB6sC7s0p25":8703,"cs4sA4sGw":8704,"cs4sA5sFw":8705,"cs4sA5sEt":8706,"cs4sA6sBt":8707,"cs4sA2sA":8708,"cs4sA6sA5sA":8709,"cs4sA5sF5sD":8710,"cs4sA4sF4sF":8711,"cs4sA5sC5sE":8712,"cs4sA5sFw5sEt":8713,"cs4sA5sC6sC5sE5s0p25":8714,"cs4sA6sEt6sC":8715,"cs4sA5sFw5sFw":8716,"6sFw5s0p5":8717,"6sFw6sCw":8718,"6sFw6sB5s0p25":8719,"6sFw6sBt5s0p25":8720,"cs4sD3sG":8721,"cs4sD6sA":8722,"cs4sD6sCw":8723,"cs4sD5sE5sC":8724,"cs4sD6sA5sA":8725,"6sEt6s0p75":8726,"6sEt7s0p5":8727,"6sEt6sFw6s0p25":8728,"3sBt4s1p0":8729,"3sBt3sG3s0p25":8730,"3sBt3sE4s0p25":8731,"3sBt2sG":8732,"3sBt4sF4sA":8733,"cs3sCw3sA":8734,"cs3sCw6sD6sB5s0p25":8735,"cs3sCw5sD5sB4s0p25":8736,"cs3sCw5sB4sG4s0p25":8737,"3sEt4s3p0":8738,"3sEt3sBt3s0p25":8739,"cs4sB6sE":8740,"cs4sB6sG":8741,"cs4sB6sF":8742,"cs4sB3sBt":8743,"cs4sB3sEt":8744,"cs4sB3sFw":8745,"cs4sB5sG5sB":8746,"cs4sB4sE4sG4sC5s0p25":8747,"cs2sG4sG3s2p0":8748,"cs2sG4sG3s1p25":8749,"6sCw6s2p0":8750,"7sE7sCw7s0p25":8751,"3sCw4s1p0":8752,"3sCw4s1q3":8753,"3sCw3s1p5":8754,"6sBt6s1p0":8755,"6sBt6s0p75":8756,"6sBt6s2p0":8757,"3sFw4s2p0":8758,"3sFw4sGw4s0p25":8759,"3sFw4sA4s0p5":8760,"cs4sF4sE":8761,"cs4sF5sB":8762,"cs4sF5sFw":8763,"cs4sF6sG":8764,"cs4sF7sD":8765,"cs4sF3sG3sBt":8766,"cs4sF4sE4sD":8767,"cs4sF4sB3sG":8768,"cs4sF4sB4sG":8769,"cs4sF7sE7sE":8770,"cs2sE6sE5s1q12":8771,"7sC7s0p5":8772,"7sC7s1p0":8773,"cs2sC5sE4s0p75":8774,"cs3sC4sE3sE4s1p0":8775,"cs3sC4sE4sE5s1p0":8776,"cs3sC4sE4sC5s0p75":8777,"cs3sC4sE3sA3s1p0":8778,"cs3sC4sE4sA4s2p0":8779,"cs3sC4sE4sG3s1q3":8780,"cs3sC4sE4sC5s4q3":8781,"cs3sC4sE4sG4s2p5":8782,"cs2sF5sF4s3p0":8783,"cs2sC6sC5s0p75":8784,"cs2sC6sC6s1q3":8785,"cs2sC6sC7s1p5":8786,"2sD3sE3s0p25":8787,"7sB5s0p25":8788,"7sB6s1p0":8789,"7sB6sGw6s0p25":8790,"4sC5sE4s0p5":8791,"4sC5sE4s1q3":8792,"4sC5sE5sC5sA4s0p25":8793,"cs4sGw5sC":8794,"cs4sGw4sF":8795,"cs4sGw5sD":8796,"cs4sGw4sEt":8797,"cs4sGw3sBt":8798,"cs4sGw3sB3sD":8799,"cs4sGw5sD5sB":8800,"cs4sGw5sC6sC":8801,"cs4sGw5sC6sEt":8802,"cs4sGw5sF5sD":8803,"cs4sGw4sCw5sF":8804,"cs4sGw3sB3sE":8805,"cs4sGw4sD5sE":8806,"cs4sEt5sA5sB":8807,"cs4sEt4sA4sFw":8808,"cs4sEt4sA4sB":8809,"cs4sEt4sF4sA":8810,"cs2sB4sB4s1q3":8811,"cs2sB4sB5s1p5":8812,"7sA6sE7s0p25":8813,"cs4sBt5sC":8814,"cs4sBt3sG":8815,"cs4sBt4sFw":8816,"cs4sBt3sF":8817,"cs4sBt3sBt":8818,"cs4sBt6sCw":8819,"cs4sBt4sE4sG":8820,"cs4sBt4sD5sF":8821,"cs4sBt3sC4sE":8822,"cs4sBt5sC6sC":8823,"cs4sBt5sF5sD":8824,"cs4sBt3sGw3sD":8825,"cs4sBt3sCw4sFw":8826,"cs3sG3sC3sEt3s2p0":8827,"cs3sE4sC4sC5s0p25":8828,"cs3sE4sC5sA4s0p25":8829,"cs3sE4sC4sA4s1p0":8830,"cs3sE4sC4sE3s1q3":8831,"cs2sB3sB2s1p0":8832,"cs4sCw6sF":8833,"cs4sCw5sCw":8834,"cs4sCw7sB":8835,"cs4sFw5sC":8836,"cs4sFw4sGw":8837,"cs4sFw5sG5sE":8838,"cs4sFw5sEt5sC":8839,"cs4sFw4sCw5sGw":8840,"cs2sD5sD6s2p0":8841,"cs2sE4sC5s3p0":8842,"cs2sE4sC4s1q6":8843,"7sF6s1p0":8844,"7sF7sC":8845,"2sC3sB":8846,"cs3sE4sG4sB4s1p0":8847,"cs3sE4sG3sE3s1p0":8848,"cs3sE4sG3sE3s1p5":8849,"cs3sC5sE5sGw5s0p25":8850,"cs3sC5sE5sA5s0p5":8851,"cs3sC5sE4sE5s1p0":8852,"cs3sC5sE5sE4s0p25":8853,"cs3sC5sE5sA5s1p5":8854,"cs3sA4sC4sE4s0p25":8855,"cs2sGw4sGw5s1q3":8856,"cs2sGw4sGw3s2p0":8857,"2sE3sB2s0p25":8858,"1sC":8859,"1sF":8860,"cs3sD4sF4sC5s0p25":8861,"cs3sD4sF4sG4s1p0":8862,"cs3sD4sF4sBt4s2p0":8863,"cs3sD4sF3sB3s1p25":8864,"cs3sG4sE4sC5s0p5":8865,"cs3sG4sE4sA3s0p25":8866,"2sG3s2p0":8867,"7sD7sD":8868,"cs3sC4sF3sF4s0p25":8869,"cs3sC4sF4sF3s1p0":8870,"2sB2s1q3":8871,"cs3sF4sA4sD4s0p25":8872,"cs3sF4sA4sB3s0p25":8873,"cs3sF4sA4sD4s0p5":8874,"cs3sF4sA4sC4s1p0":8875,"cs3sF4sA5sD5s1p0":8876,"cs3sF4sA4sB4s2p0":8877,"cs3sA3sC4sD4s1p0":8878,"cs3sA3sC4sA4s3p0":8879,"cs2sC4sE4s1p5":8880,"cs2sC4sE3s2p0":8881,"cs2sC4sE4s1p25":8882,"cs2sC4sE4s2q3":8883,"cs2sC4sE4s2p5":8884,"cs2sC6sE5s1p0":8885,"7sG7sE7s0p25":8886,"7sGw6s0p5":8887,"7sGw6sF":8888,"7sGw6sB6s0p25":8889,"cs3sB3sD3sG3s0p25":8890,"cs3sB3sD4sG3s0p5":8891,"cs3sB3sD4sG4s0p75":8892,"7sEt7sEt":8893,"7sEt7sE7s0p25":8894,"cs3sC4sA4sFw4s0p5":8895,"cs3sC4sA4sC5s0p75":8896,"cs3sC4sA3sE3s0p5":8897,"cs3sC4sA3sE3s1p0":8898,"cs3sC4sA3sFw4s0p5":8899,"cs3sC4sA4sF4s0p75":8900,"cs3sC4sA4sA3s1p5":8901,"cs3sC4sA4sC5s1p25":8902,"cs3sG4sB4sC5s0p25":8903,"cs3sG4sB4sD4s0p25":8904,"cs3sG4sB4sE5s0p5":8905,"7sCw7s1q3":8906,"7sCw7sA6s0p25":8907,"cs3sE5sG5sE6s0p5":8908,"cs3sE5sG4sG5s0p5":8909,"cs3sE5sG4sG5s1q3":8910,"cs3sF4sD4sB4s0p25":8911,"cs3sF4sD4sA4s0p5":8912,"cs3sF4sD4sG3s0p25":8913,"cs3sF4sD5sF5s1p0":8914,"cs3sF4sD4sA3s1q3":8915,"cs3sF4sD5sBt4s1p0":8916,"cs2sC4sC5s3p0":8917,"cs3sF4sGw4sGw5s0p5":8918,"cs3sF4sGw4sF5s2p0":8919,"2sA1s0p25":8920,"7sFw7sA6s0p25":8921,"cs3sC5sA4sE4s0p5":8922,"cs3sC5sA5sA4s0p25":8923,"cs3sC5sA4sEt4s1p0":8924,"cs3sC5sA5sC6s2p0":8925,"cs3sC5sA4sF4s2p0":8926,"cs3sC5sA4sA5s0p5":8927,"cs3sE4sA4sCw4s0p25":8928,"cs2sB5sB6s1p0":8929,"cs2sB5sB6s1p5":8930,"cs2sB5sB4s1p25":8931,"cs2sD4sB4s1p5":8932,"cs2sD4sB3s2p0":8933,"cs3sE3sG3sC4s4p0":8934,"cs3sA4sE4sG4s0p25":8935,"cs3sA4sE4sC5s0p25":8936,"cs3sA4sE5sC5s0p5":8937,"cs3sA4sE5sA5s1p0":8938,"cs3sA4sE5sC5s1p0":8939,"cs3sA4sE4sCw4s1p5":8940,"cs3sG4sC4sC5s0p25":8941,"cs3sG4sC4sC5s0p75":8942,"cs2sB4sD4s1q3":8943,"cs2sB4sD5s1p25":8944,"cs3sG3sE3sE4s0p25":8945,"cs3sG3sE4sG4s2p0":8946,"cs3sG3sE4sC4s2p0":8947,"cs2sGw5sGw5s1q3":8948,"cs2sGw5sGw6s2p0":8949,"cs2sGw5sGw6s1p5":8950,"cs3sC4sG4sE4s0p5":8951,"cs3sC4sG4sBt4s0p25":8952,"cs3sC4sG3sE4s0p5":8953,"cs3sC4sG4sG3s0p25":8954,"cs3sC4sG3sEt4s0p25":8955,"cs3sC4sG4sG3s1p0":8956,"cs3sC4sG4sC5s2p0":8957,"cs3sC4sG3sE4s3p0":8958,"cs3sC5sG4sE5s0p25":8959,"cs3sC5sG5sC6s0p5":8960,"cs3sB4sD4sD5s0p5":8961,"cs3sB4sD5sG5s1p5":8962,"cs3sD4sB3sF4s0p25":8963,"cs3sD4sB3sGw3s0p25":8964,"cs3sD4sB4sD5s0p75":8965,"cs3sE5sE5sE6s0p25":8966,"cs3sE5sE4sC5s1q3":8967,"cs3sE5sE6sC6s1p0":8968,"cs3sE3sC4sG3s0p25":8969,"cs3sE3sC4sG3s0p5":8970,"cs3sE3sC4sG4s0p75":8971,"cs3sGw4sB4sD5s1p0":8972,"cs3sGw4sB3sE4s0p25":8973,"cs3sGw4sB4sE5s0p75":8974,"cs3sGw4sB4sE5s1p5":8975,"cs3sGw4sB4sGw5s1p0":8976,"cs3sE5sC5sG5s0p25":8977,"cs3sE5sC5sFw4s0p25":8978,"cs3sE5sC5sC6s0p75":8979,"cs3sF4sB3sD4s0p5":8980,"cs3sF4sB4sB3s0p25":8981,"cs3sF4sB4sF5s1p0":8982,"cs3sF4sB4sG5s2p0":8983,"cs3sF4sB4sF5s2q3":8984,"cs2sGw3sGw4s1q3":8985,"cs2sGw3sGw2s2p0":8986,"cs3sA4sF5sC5s0p25":8987,"cs3sA4sF4sF5s0p25":8988,"cs3sA4sF5sA5s1q3":8989,"cs3sA4sF4sF5s0p5":8990,"cs3sA4sF5sC6s0p75":8991,"cs2sE4sG4s3p0":8992,"cs2sE4sG3s1p5":8993,"cs3sD5sF4sA4s0p5":8994,"cs3sD5sF5sGw5s0p25":8995,"cs2sD4sF3s1q3":8996,"cs3sG5sE5sC6s0p25":8997,"cs3sG5sE5sB4s0p25":8998,"cs3sG5sE6sE5s0p25":8999,"cs3sG5sE6sC6s1p0":9000,"cs3sG5sE5sCw5s0p5":9001,"cs2sBt5sBt4s1q3":9002,"cs2sBt5sBt4s0p75":9003,"cs2sBt5sBt4s2p0":9004,"cs3sF4sC5sC":9005,"cs3sF4sC4sC5s0p5":9006,"cs3sF4sC4sC5s1p0":9007,"cs3sF4sC5sC4s0p5":9008,"cs3sF4sC5sF5s2q3":9009,"cs2sD4sD5s1p25":9010,"cs2sD4sD5s1p75":9011,"cs3sB3sF4sG4s0p25":9012,"cs3sB3sF4sA4s1p0":9013,"cs3sB3sF4sGw4s1q3":9014,"cs3sG3sB3sE4s0p5":9015,"cs3sG3sB3sE4s1p0":9016,"cs3sG3sB3sD3s0p25":9017,"cs3sG3sB3sG4s2p0":9018,"4sG4sB4s0p75":9019,"4sG4sB4s2p0":9020,"cs3sF3sB3sG4s0p5":9021,"cs3sF3sB3sE4s0p75":9022,"cs3sF3sB3sE4s2p0":9023,"cs3sF3sB3sE4s1p25":9024,"7sBt7s1q3":9025,"cs3sE4sE5sGw":9026,"cs3sE4sE3sC4s0p25":9027,"cs3sE4sE5sC5s0p5":9028,"cs2sCw5sCw6s1q12":9029,"cs2sEt4sEt5s1q3":9030,"cs3sC4sEt4sFw4s0p25":9031,"cs3sC4sEt4sFw4s0p5":9032,"cs3sC4sEt4sA4s2p0":9033,"cs3sC4sEt4sA3s1p5":9034,"cs3sC4sEt4sC5s3p0":9035,"cs3sA5sC5sA4s0p25":9036,"cs3sA5sC6sEt6s1p5":9037,"cs3sG4sG5sD5s0p25":9038,"cs3sG4sG4sA4s1q3":9039,"cs3sG4sG5sEt5s1p0":9040,"cs4sE4sG4sCw5sA4s1p0":9041,"cs3sC4sC5sGw4s0p25":9042,"cs3sC4sC4sD4s1q3":9043,"cs3sC4sC5sEt4s0p25":9044,"cs3sC4sC3sE3s2p0":9045,"cs3sG4sD4sB3s0p25":9046,"cs2sC7sC8s":9047,"cs3sC6sE6sG6s0p25":9048,"cs3sC6sE5sG5s0p5":9049,"cs3sC6sE5sC5s0p5":9050,"cs3sC6sE6sGw6s0p25":9051,"cs3sC6sE5sC5s1p0":9052,"cs3sC6sE5sE6s0p5":9053,"cs3sC6sE6sE5s1p0":9054,"cs3sC6sE5sC5s0p75":9055,"cs3sD5sB4sG4s0p25":9056,"cs3sD5sB4sE5s0p25":9057,"cs3sD5sB5sE5s0p5":9058,"cs3sB4sGw5sB5s1q3":9059,"cs3sE4sB3sD4s0p25":9060,"cs3sE4sB3sGw4s0p5":9061,"cs3sC5sC4sF4s1p0":9062,"cs3sC5sC4sE4s1q3":9063,"cs3sC5sC6sA5s0p5":9064,"cs3sC5sC4sGw4s1p0":9065,"cs3sC5sC6sG5s1p0":9066,"cs3sC5sC4sE4s1p5":9067,"cs3sB4sE4sG4s0p25":9068,"cs3sB4sE5sG5s0p5":9069,"cs3sB4sE4sGw4s1q3":9070,"cs3sB4sE5sGw5s1p0":9071,"cs3sB4sE5sGw5s1p5":9072,"cs3sB4sE5sGw5s2p0":9073,"cs2sCw6sCw5s1q3":9074,"cs2sCw6sCw7s1p0":9075,"cs4sE5sG5sC":9076,"cs3sE5sB5sE6s0p25":9077,"cs3sE5sB5sD5s0p5":9078,"cs3sE5sB4sG5s0p75":9079,"cs3sE5sB5sE6s2p0":9080,"cs3sE6sGw5sB5s0p5":9081,"cs3sC5sD4sA4s0p25":9082,"cs3sC5sD4sD5s0p25":9083,"cs3sC5sD4sG4s0p5":9084,"cs3sC5sD5sGw4s0p25":9085,"cs3sGw4sC4sEt4s0p5":9086,"cs3sGw4sC5sGw5s1p0":9087,"cs3sGw4sC5sEt5s1p75":9088,"cs3sF5sD5sC6s0p25":9089,"cs3sF5sD5sB4s0p25":9090,"cs3sF5sD5sD6s0p5":9091,"cs3sF5sD5sG4s1p0":9092,"cs3sF5sD5sB4s0p75":9093,"cs3sF5sD5sGw5s1p5":9094,"4sD5sF5s0p75":9095,"cs3sG5sB5sG6s0p5":9096,"cs3sG5sB4sB5s0p25":9097,"cs3sD4sG4sD5s0p5":9098,"cs3sD4sG4sBt4s0p5":9099,"cs3sE6sE5sGw5s0p25":9100,"cs3sE6sE5sC6s0p5":9101,"cs4sG4sBt4sEt":9102,"cs3sB4sG4sC5s0p25":9103,"cs3sB4sF4sG4s0p25":9104,"cs3sB4sF5sG5s0p25":9105,"cs3sB4sF4sGw4s0p5":9106,"cs3sB4sF4sD4s1p0":9107,"cs3sG4sBt4sE5s0p25":9108,"cs3sG4sBt4sE5s1p0":9109,"cs3sG4sBt4sEt5s1p0":9110,"cs3sG4sBt4sG5s0p5":9111,"cs3sC5sF4sA4s0p5":9112,"cs3sC5sF5sG5s0p5":9113,"cs3sC5sF5sA5s0p5":9114,"cs3sC5sF5sC6s0p75":9115,"cs3sC5sF5sF4s1q3":9116,"cs3sB3sE4sGw4s2p0":9117,"cs3sE5sA4sC5s0p25":9118,"cs3sE5sA4sE4s0p25":9119,"cs3sE5sA5sCw6s1p0":9120,"cs4sC5sE5sA5sC6s1p0":9121,"cs4sC5sE5sFw5sE5s0p25":9122,"cs2sB4sG5s1q3":9123,"cs3sE5sGw4sE4s1p0":9124,"cs3sE5sGw4sB4s1p0":9125,"cs3sE5sGw5sE6s0p5":9126,"cs3sB3sG4sB4s1p0":9127,"cs2sC5sEt5s1q3":9128,"cs2sFw4sFw5s1q3":9129,"cs2sFw4sFw5s0p75":9130,"cs3sCw5sE5sFw5s0p25":9131,"cs2sB3sD3s0p5":9132,"cs3sA4sB3sF4s0p25":9133,"cs3sA4sB4sEt4s1q3":9134,"cs3sGw3sB3sE4s1p5":9135,"cs3sGw3sB3sE4s3p0":9136,"cs3sEt4sG4sC5s0p5":9137,"cs3sEt4sG4sEt5s0p25":9138,"cs3sEt4sG4sC5s0p75":9139,"cs3sE6sC6sC7s0p25":9140,"cs3sE6sC7sC6s0p25":9141,"cs3sE6sC6sE5s4q3":9142,"cs3sG5sG4sD5s0p25":9143,"cs3sG5sG6sB5s0p25":9144,"cs3sG5sG6sB5s0p5":9145,"cs4sE4sA4sG4sA4s0p25":9146,"cs3sD5sG5sD":9147,"cs3sD5sG5sD6s0p25":9148,"cs3sD5sG5sB4s0p5":9149,"cs3sD5sG5sB4s2p0":9150,"cs3sC6sC5sEt5s0p25":9151,"cs3sC6sC7sFw6s1p0":9152,"cs4sE5sC5sA":9153,"cs4sE5sC6sD":9154,"cs4sE5sC6sG":9155,"cs4sE5sC4sE4sC5s0p5":9156,"cs4sD4sF4sG":9157,"cs3sD5sD4sB4s0p25":9158,"cs3sD5sD4sF4s1p0":9159,"cs3sD5sD6sFw5s0p25":9160,"cs2sA2sA3s0p75":9161,"cs2sA2sA3s3p0":9162,"cs2sA2sA3s2q3":9163,"cs2sA2sA1s0p5":9164,"cs3sA4sA3sC4s0p25":9165,"cs3sA4sA3sC4s1p0":9166,"cs3sA4sA5sC5s1p0":9167,"cs3sA5sF5sA4s0p25":9168,"cs3sA5sF5sF6s0p25":9169,"cs3sA5sF5sF6s0p5":9170,"cs3sA5sF5sF6s0p75":9171,"cs3sF5sA4sC5s0p25":9172,"cs3sF5sA4sC5s1p0":9173,"cs3sF5sA5sD6s1p0":9174,"cs3sF5sA4sA5s0p25":9175,"cs3sD5sC5sA4s0p5":9176,"cs3sD5sC5sG4s0p5":9177,"cs3sD5sC5sFw4s0p5":9178,"cs3sD4sA4sD5s0p5":9179,"cs3sD4sA4sB4s0p5":9180,"cs3sD4sA4sC5s0p75":9181,"cs3sD4sA4sB4s1p5":9182,"cs3sD4sA4sF5s1q3":9183,"cs3sC3sE3sG3s1p5":9184,"cs3sB4sA4sE4s0p25":9185,"cs3sG4sC5sE5s0p75":9186,"cs3sF4sF3sC4s1p0":9187,"cs3sF4sF5sA4s0p5":9188,"cs3sF4sF3sB3s1p5":9189,"cs3sD4sGw3sE4s0p25":9190,"cs3sD4sGw4sB4s1p5":9191,"cs3sD4sGw4sE4s0p75":9192,"cs3sGw4sE4sB3s1p0":9193,"cs3sGw4sE4sB3s1q3":9194,"cs3sF4sBt3sF3s0p25":9195,"cs3sF4sBt3sBt4s0p25":9196,"cs3sF4sBt4sF5s2q3":9197,"rs13q3":9198,"cs6sE6sE7sCw":9199,"cs3sF4sG4sD4s0p5":9200,"cs3sF4sG4sF4s1q3":9201,"cs3sGw3sC4sGw4s1p0":9202,"cs4sE5sA5sCw":9203,"cs4sE5sA5sCw6sE":9204,"cs4sE5sA5sCw6sE6s0p25":9205,"cs4sE5sA4sB4sFw4s0p25":9206,"cs4sC4sG4sBt4sC5s0p25":9207,"cs4sC4sG4sC5sD4s1q3":9208,"cs3sCw4sF4sFw4s0p25":9209,"cs3sCw4sF4sGw4s0p5":9210,"cs3sCw4sF4sCw5s1q3":9211,"cs3sCw4sF4sBt4s0p75":9212,"cs3sB3sGw4sE4s1p0":9213,"cs3sB3sGw4sB4s1p0":9214,"cs3sB3sGw4sB4s1p5":9215,"cs3sGw5sE5sA5s0p25":9216,"cs3sGw5sE6sE5s1q12":9217,"cs4sB4sD4sF":9218,"cs5sC5sBt":9219,"cs5sC5sD5sC":9220,"cs5sC6sEt5sF":9221,"cs2sC4sF4s2p0":9222,"cs3sB5sG5sG6s0p25":9223,"cs3sA3sE4sA4s0p25":9224,"cs3sB4sB5sG5s0p25":9225,"cs3sB4sB5sF5s0p25":9226,"cs3sB4sB5sF5s1p0":9227,"cs3sG4sF4sGw4s0p25":9228,"cs3sF5sG5sB4s0p25":9229,"cs3sF5sG5sD6s0p25":9230,"cs3sGw5sB5sB4s0p25":9231,"cs3sGw5sB4sGw4s0p25":9232,"cs3sGw5sB4sE5s0p25":9233,"cs3sGw5sB4sE5s1p0":9234,"cs3sGw5sB5sE6s1p0":9235,"cs3sGw5sB5sGw6s0p25":9236,"cs3sGw5sB5sGw6s0p5":9237,"cs3sGw4sF4sB4s0p25":9238,"cs3sGw4sF5sC5s0p25":9239,"cs3sGw4sF5sF4s0p25":9240,"cs3sGw4sF5sF4s1p0":9241,"cs3sEt4sGw4sB4s1p0":9242,"cs3sEt4sGw4sCw5s1p0":9243,"cs3sEt4sGw4sEt5s0p75":9244,"cs3sC4sFw4sC5s0p25":9245,"cs3sC4sFw4sA4s0p25":9246,"cs3sC4sFw4sC5s0p5":9247,"cs3sF5sB5sD5s0p25":9248,"cs3sF5sB5sD6s1p0":9249,"cs3sF5sB5sG6s0p25":9250,"cs3sF5sB5sF6s0p75":9251,"cs3sF5sB4sG5s0p75":9252,"cs3sGw4sD5sF5s0p25":9253,"cs3sGw4sD5sE5s1q3":9254,"cs3sGw4sD5sF5s0p5":9255,"cs3sGw4sD5sGw5s1p0":9256,"cs3sA4sD5sC5s0p5":9257,"cs3sA5sD6sF6s0p25":9258,"cs3sA5sD6sFw6s0p25":9259,"cs3sA5sD5sD6s1p0":9260,"cs3sA5sD6sF5s0p5":9261,"cs3sA5sD6sF5s1q3":9262,"cs3sF5sF4sC5s0p25":9263,"cs3sF3sGw3sF4s0p5":9264,"cs3sF3sGw3sF4s0p25":9265,"cs3sF3sGw3sCw4s0p25":9266,"cs3sFw4sC4sA3s0p25":9267,"cs3sFw4sC4sA3s1p0":9268,"cs3sFw4sC4sFw3s0p5":9269,"cs3sFw4sC5sFw5s0p75":9270,"cs3sBt4sG5sG4s0p25":9271,"cs3sBt4sG4sD4s0p5":9272,"cs2sF3sA3s2p0":9273,"cs3sG5sC5sG4s0p25":9274,"cs3sG5sC6sEt6s0p25":9275,"cs3sG5sC5sG4s0p5":9276,"cs3sF5sGw5sC6s1p0":9277,"cs3sEt4sFw4sC5s0p5":9278,"cs3sEt4sFw4sBt4s0p5":9279,"cs2sF3sF4s0p75":9280,"cs2sF3sF2s0p5":9281,"cs3sC5sGw4sEt5s0p25":9282,"cs3sC5sGw4sF5s0p5":9283,"cs3sA5sA6sFw6s0p25":9284,"cs3sA5sA6sCw6s0p25":9285,"cs3sA5sA6sE6s0p5":9286,"cs3sA6sA5sEt6s0p25":9287,"cs3sEt6sA5sA6s0p25":9288,"cs3sFw4sEt4sB4s0p5":9289,"cs3sFw4sEt5sFw5s0p5":9290,"2sEt3s0p5":9291,"cs3sG3sF3sC4s1p0":9292,"cs3sA3sF4sA4s0p5":9293,"cs3sA3sF3sC3s0p5":9294,"cs3sA3sF4sA4s3p0":9295,"cs3sE4sCw5sA4s0p25":9296,"cs3sE4sCw4sG4s1p0":9297,"cs3sE4sCw5sGw4s1q3":9298,"cs3sG3sG4sE4s0p25":9299,"cs3sG3sG4sD4s0p25":9300,"5sA5sG5sB4s0p25":9301,"4sCw5sE5sBt5sFw5s1p0":9302,"cs4sB4sG5sF":9303,"cs2sB2sB3s0p5":9304,"cs2sB2sB1s1p0":9305,"cs4sE3sG4sG3sC4s0p25":9306,"cs3sEt4sC5sEt5s0p25":9307,"cs3sEt4sC5sC4s0p25":9308,"cs3sEt4sC4sFw3s0p5":9309,"cs3sC4sGw4sEt4s0p5":9310,"cs3sC4sGw4sC5s0p75":9311,"cs3sFw4sA4sCw5s0p25":9312,"cs3sFw4sA4sD4s0p5":9313,"cs3sFw4sA4sFw5s0p5":9314,"cs4sC6sG5sG":9315,"cs4sC6sG6sE6sC7s1p0":9316,"cs3sA4sG4sE5s0p5":9317,"cs3sEt5sC5sFw4s0p25":9318,"cs3sEt5sC5sFw4s0p5":9319,"cs3sFw3sA3sD4s1p0":9320,"cs3sFw3sA3sC4s2p0":9321,"cs4sD5sF4sGw":9322,"cs4sD5sF5sE5sG5s0p25":9323,"cs4sD5sF5sBt5sBt":9324,"cs5sG4sB4sE":9325,"cs5sG4sE5sA5sG":9326,"cs5sG4sB4sD5sF":9327,"cs3sF6sD6sA5s0p25":9328,"cs3sF6sD6sB6s0p25":9329,"cs3sF6sD6sB5s1p5":9330,"cs3sBt4sE5sBt5s0p5":9331,"cs2sG5sBt4s0p75":9332,"cs3sC5sEt5sC6s0p25":9333,"cs3sC5sEt5sA4s0p25":9334,"cs3sC5sEt4sC4s0p25":9335,"cs3sC5sEt5sGw4s0p25":9336,"cs3sG6sE6sC6s0p25":9337,"cs3sG6sE6sC6s0p5":9338,"cs3sD5sA4sF4s0p5":9339,"cs3sD5sA4sFw4s0p25":9340,"cs3sD5sA4sF5s0p5":9341,"cs3sD5sA5sD6s1p0":9342,"cs3sB4sEt4sEt5s0p25":9343,"cs3sB4sEt4sA4s1q3":9344,"cs3sB4sEt5sEt4s0p25":9345,"cs3sG3sD4sG4s0p25":9346,"cs3sG3sD4sE4s0p25":9347,"cs3sD6sB6sD7s0p25":9348,"cs4sE4sGw4sE":9349,"4s5p25":9350,"cs2sG4sBt4s0p75":9351,"cs2sG4sBt4s2p0":9352,"cs3sE6sCw6sA5s0p25":9353,"cs3sE6sCw6sE5s0p5":9354,"cs3sD3sF3sA3s0p5":9355,"cs3sFw4sB4sEt5s0p25":9356,"cs3sFw5sA4sA5s1p5":9357,"cs3sC5sFw5sC6s1p5":9358,"cs3sG3sBt3sCw4s0p25":9359,"cs3sA3sD4sA4s1p0":9360,"cs3sA3sD4sF4s1p0":9361,"cs3sEt5sFw5sC6s0p25":9362,"cs3sEt5sFw5sA5s2p75":9363,"cs3sFw5sC6sFw6s0p25":9364,"cs3sB5sD5sD6s0p25":9365,"cs3sB5sD6sG6s0p25":9366,"cs3sD4sD5sG4s1p0":9367,"cs3sD4sD5sBt4s1p0":9368,"cs3sD4sD3sB3s0p75":9369,"cs5sD5sD":9370,"cs5sD6sFw":9371,"cs5sD5sF5sB":9372,"cs5sD3sD4sC":9373,"cs5sD5sF5sGw":9374,"cs2sB2sG3s0p75":9375,"cs3sE3sA3sC4s0p25":9376,"cs3sE3sA3sCw3s0p25":9377,"cs3sB5sE5sGw5s1p0":9378,"cs3sG5sD5sF5s0p25":9379,"cs3sG5sD5sB4s1p0":9380,"cs3sG5sD6sG6s0p5":9381,"cs3sF3sA3sC4s0p5":9382,"cs3sF3sA3sC4s1p0":9383,"cs3sF3sA3sF4s0p25":9384,"cs3sF3sA3sD3s0p25":9385,"cs3sD6sD5sB5s0p25":9386,"cs3sD6sD5sE6s0p25":9387,"cs3sD6sD5sBt5s0p25":9388,"cs3sFw5sEt5sG5s0p25":9389,"cs4sA4sE4sCw":9390,"cs4sA4sE5sC5sE":9391,"cs4sD5sE4sB4sE5s1p0":9392,"cs3sF3sG3sD4s0p5":9393,"cs3sF3sG3sB3s0p25":9394,"cs3sCw5sA5sA4s1p0":9395,"cs4sB4sE5sG5sB5s0p25":9396,"cs2sD5sBt5s0p5":9397,"cs2sD5sBt5s1p0":9398,"cs3sA4sCw4sE4s0p25":9399,"cs3sA4sCw5sFw5s0p25":9400,"cs4sG4sE4sC5sE5s0p5":9401,"cs4sC4sE4sE":9402,"cs4sC4sE4sA4sC":9403,"cs4sC4sE4sA4sC5s0p25":9404,"cs4sC4sE4sE5sC5s0p5":9405,"cs4sC4sE5sE4sC5s0p5":9406,"cs2sE3sG3s3p0":9407,"cs2sG2sG3s1p5":9408,"5sC6sC5s0p25":9409,"5sC6sC5s1p0":9410,"cs3sA6sF6sA5s0p5":9411,"cs3sA6sF6sA5s1p0":9412,"cs3sA6sF6sA5s1p5":9413,"cs3sD6sA5sD5s0p25":9414,"cs3sD6sA5sD5s0p5":9415,"cs3sD6sA5sF6s1p0":9416,"cs3sD6sA5sCw6s1q3":9417,"cs3sFw5sFw6sA5s0p25":9418,"cs3sFw5sFw6sEt6s0p25":9419,"cs3sFw5sFw6sC6s0p5":9420,"cs3sE4sD4sE4s0p25":9421,"cs3sE4sD4sB3s0p5":9422,"cs3sE6sB5sE5s1p0":9423,"cs3sE6sB5sB6s0p25":9424,"cs3sA3sA4sF4s0p5":9425,"cs3sA3sA4sC4s1p0":9426,"cs3sD5sGw5sD6s0p5":9427,"cs4sE6sC6sG5sE5s0p25":9428,"cs3sEt4sA4sC5s1p0":9429,"cs3sEt4sA4sB4s1p5":9430,"cs4sG5sE5sB4sB":9431,"cs4sC5sA4sG5sA5s0p25":9432,"cs3sBt4sF4sD4s0p5":9433,"cs3sBt4sF4sD4s1p0":9434,"cs3sBt4sF5sF4s0p25":9435,"cs3sCw6sE5sE6s0p5":9436,"cs3sE4sBt4sE5s2q3":9437,"cs2sGw6sGw5s1p0":9438,"cs3sB5sEt6sB6s0p25":9439,"cs3sGw3sD4sE4s1p0":9440,"cs4sGw4sE4sB":9441,"cs5sA4sEt3sFw3sA":9442,"cs5sA4sC5sE5sC5sA4s0p25":9443,"cs2sG3sB3s2q3":9444,"cs3sA4sFw4sD5s0p25":9445,"cs3sA4sFw5sC5s0p25":9446,"cs3sA4sFw4sFw5s0p5":9447,"cs3sF5sC6sF6s0p25":9448,"cs3sF5sC6sF6s1p0":9449,"cs3sGw5sGw4sB4s0p25":9450,"cs3sGw5sGw6sB5s0p25":9451,"cs3sE3sE4sC4s0p25":9452,"cs3sE3sE4sG3s0p25":9453,"cs3sE5sC6sE6s1q6":9454,"5sF5sD6s2p0":9455,"cs3sG4sCw5sA5s0p25":9456,"cs3sA3sFw3sD4s0p25":9457,"cs3sD3sB3sG3s0p25":9458,"cs3sGw3sE4sD4s0p5":9459,"cs4sE6sE5sGw5sB5s0p25":9460,"cs4sE6sE5sCw6sA5s0p5":9461,"nsG3s5":9462,"nsG3s1q6":9463,"cs3sA5sFw5sFw6s0p25":9464,"cs3sEt5sB4sFw4s0p25":9465,"cs3sEt5sB5sFw6s0p25":9466,"cs3sEt5sB5sA4s0p75":9467,"cs3sEt5sB5sFw6s0p5":9468,"cs3sBt3sF4sG4s0p25":9469,"cs3sBt3sF4sG4s0p5":9470,"cs3sBt3sF4sG4s1p0":9471,"cs3sB5sGw5sGw6s0p25":9472,"cs3sF3sD4sD":9473,"cs3sF5sBt4sF4s0p25":9474,"cs3sGw5sC6sEt6s0p25":9475,"cs4sC4sE4sG4sC5s0p5":9476,"cs3sBt3sD4sG4s0p25":9477,"cs4sA4sB4sA":9478,"cs4sA4sB4sA4sG4s0p25":9479,"cs4sA4sC5sE4sE5s0p5":9480,"cs4sD4sG4sB4sD5s0p25":9481,"cs3sC4sA3sA4s1q3":9482,"cs3sG4sA4sB4s0p25":9483,"cs3sG4sA3sC4s1p0":9484,"cs3sF4sE5sGw4s0p25":9485,"5sEt5sFw4s1p0":9486,"cs4sE5sCw5sE":9487,"cs3sEt6sC6sGw5s1q3":9488,"cs3sEt6sC7sC6s0p25":9489,"cs3sEt6sC6sEt5s0p5":9490,"cs4sG5sG4sBt4sE5s2q3":9491,"cs3sBt4sBt3sF4s0p5":9492,"cs3sBt4sBt3sE4s0p5":9493,"cs4sF5sD5sG":9494,"cs4sF5sGw5sD":9495,"cs3sB5sF5sB4s1p0":9496,"cs3sG3sCw4sB3s0p25":9497,"cs3sGw5sF5sA5s0p25":9498,"cs3sGw5sF6sGw6s0p25":9499,"cs3sGw5sF5sD5s1p0":9500,"cs4sE5sE6sG5sC6s0p25":9501,"cs3sEt5sEt4sG4s0p25":9502,"cs3sEt5sEt4sB4s0p25":9503,"cs3sEt6sFw6sEt7s0p25":9504,"cs3sBt3sG4sBt4s0p25":9505,"cs4sGw4sC5sC":9506,"cs4sGw4sC4sF":9507,"cs4sGw5sE5sB5sE6s0p25":9508,"cs2sC3sE3s3p0":9509,"5sA5sF6s1p0":9510,"5sA5sF5sG5sE5s0p25":9511,"5sA5sF5sA4sA5s0p25":9512,"cs3sE6sA5sE5s1p0":9513,"cs3sE6sA5sCw6s0p5":9514,"cs3sC6sF5sC5s2q3":9515,"cs3sG4sEt4sC5s0p5":9516,"cs3sG4sEt4sG3s0p5":9517,"cs3sEt5sA4sB4s0p25":9518,"cs3sEt5sA4sEt4s0p25":9519,"cs3sEt6sEt5sG5s0p5":9520,"cs4sG4sB4sG":9521,"cs4sG4sB3sB":9522,"cs4sG4sB3sD":9523,"cs3sBt5sE5sCw6s0p25":9524,"cs3sBt4sCw5sE5s0p25":9525,"cs3sBt4sCw5sBt5s0p25":9526,"cs3sB4sFw5sB5s0p25":9527,"cs3sD6sG5sD5s0p25":9528,"cs3sD6sG5sG6s1p0":9529,"cs3sGw4sCw5sE5s1p0":9530,"cs3sEt3sC4sEt4s0p25":9531,"cs4sG4sD5sB":9532,"cs4sG4sD4sF":9533,"cs4sG5sB5sF":9534,"cs3sBt3sEt4sG4s1p0":9535,"cs3sBt3sEt4sG4s2p0":9536,"cs6sA5sB4sG":9537,"cs2sC2sC3s4q3":9538,"5sC6sF6s0p75":9539,"cs3sE7sF7sCw7s0p25":9540,"cs3sA5sB4sF5s0p5":9541,"cs3sD4sBt4sD5s1p0":9542,"cs3sD4sBt4sD5s1q3":9543,"cs3sGw6sE6sGw5s0p5":9544,"cs3sGw4sGw5sB4s1p0":9545,"cs4sE4sC4sG":9546,"cs4sE4sC5sA4sE5s1p0":9547,"cs3sEt4sBt4sEt5s0p25":9548,"cs3sEt4sBt4sEt5s0p5":9549,"cs3sEt4sBt4sEt5s2q3":9550,"cs3sFw4sD4sA4s0p5":9551,"cs3sFw4sD4sB4s0p5":9552,"cs4sG4sC5sE5sG5s0p75":9553,"cs4sD5sC5sB4sC5s0p25":9554,"cs4sBt4sG4sCw5sG5s0p25":9555,"cs5sB4sD5sF":9556,"cs3sB2sF3sGw3s0p25":9557,"5sEt5sC5s2p0":9558,"cs3sCw5sG4sCw4s0p25":9559,"cs3sCw5sG4sE5s0p5":9560,"cs4sB4sF5sB":9561,"cs4sB4sF4sF":9562,"cs4sB4sF5sGw5sGw4s0p25":9563,"cs4sF4sGw4sD":9564,"cs4sEt5sC5sG4sEt4s0p25":9565,"cs4sEt5sC6sGw5sC5s1p0":9566,"cs4sE4sGw4sD5sE5s1p0":9567,"cs4sB5sEt6sA6sB6s1q12":9568,"cs3sB3sA3sD4s0p5":9569,"cs3sB3sEt4sB4s0p25":9570,"cs3sG6sB5sD6s0p25":9571,"cs3sA3sCw4sE4s0p25":9572,"cs3sA3sCw4sE4s0p5":9573,"cs3sF6sA5sF5s0p25":9574,"cs3sGw6sGw5sC6s0p25":9575,"cs3sGw6sGw5sC6s0p5":9576,"cs3sGw6sGw5sE6s0p5":9577,"cs4sG3sC4sG":9578,"cs4sC6sA5sE":9579,"cs4sD5sA5sC":9580,"cs4sCw5sF4sA":9581,"cs4sCw5sF4sF":9582,"cs4sCw5sF5sF":9583,"cs6sGw6sGw7sE":9584,"cs2sE7sE6s1p0":9585,"cs3sB6sB5sE6s0p25":9586,"cs3sB6sB5sG6s1p0":9587,"cs4sE6sD6sC6sB5s0p25":9588,"cs3sCw4sA4sE5s0p25":9589,"cs3sCw4sA3sE4s0p5":9590,"cs3sCw6sCw5sE5s0p25":9591,"cs3sCw6sCw7sA":9592,"cs4sF6sF5sA5sC6s0p25":9593,"cs4sF3sG3sB3sD4s0p5":9594,"cs4sF3sG3sB3sE4s0p75":9595,"cs5sBt3sBt4sF4sA":9596,"cs5sBt4sCw5sE5sBt5sFw5s1p0":9597,"cs2sE3sCw4s1p5":9598,"cs2sC4sEt4s1p5":9599,"cs2sC4sEt4s2p0":9600,"cs3sE6sF6sE6s0p25":9601,"cs3sE6sF6sG6s0p25":9602,"cs3sE6sF6sFw6s0p25":9603,"cs3sE6sF6sCw6s0p25":9604,"cs3sE6sF7sE7s0p25":9605,"cs2sBt2sBt3s0p25":9606,"cs2sBt2sBt3s1p0":9607,"cs2sCw7sCw6s0p5":9608,"cs3sEt4sB4sFw4s1q3":9609,"cs3sEt4sEt3sC4s0p25":9610,"cs4sC5sC6sG5sE5s0p25":9611,"cs4sD6sC6sB5sC6s0p25":9612,"cs3sCw6sA5sCw5s0p25":9613,"cs4sB3sB4sD5sD4s0p25":9614,"cs2sB6sB5s1q6":9615,"cs3sE5sBt5sE6s0p75":9616,"cs3sEt3sG3sC4s0p25":9617,"cs3sEt3sG3sC4s0p5":9618,"cs3sEt3sG3sBt3s0p5":9619,"cs3sFw6sA6sA5s0p25":9620,"cs3sFw5sBt4sCw5s0p25":9621,"cs4sG5sD5sB4sG4s0p25":9622,"cs4sC6sC5sF6sF5s0p25":9623,"cs3sBt4sEt5sG4s0p25":9624,"cs4sA3sC4sF4sA":9625,"cs4sB5sB6sE":9626,"cs4sB5sB6sF":9627,"cs4sF5sF4sA4sC5s0p25":9628,"cs3sE5sF5sD5s0p25":9629,"cs3sE5sF5sE5s1q3":9630,"6sC7sE6sBt":9631,"cs3sG5sBt5sBt4s0p25":9632,"cs3sA5sCw6sA6s0p25":9633,"cs3sA5sCw6sA6s0p5":9634,"cs3sA5sCw5sCw6s1p0":9635,"cs4sA4sD4sFw":9636,"cs4sA4sD5sEt":9637,"cs4sA4sD5sG5sA5s1p0":9638,"cs4sA4sD5sCw5sFw4s0p25":9639,"cs4sA5sB5sB":9640,"cs4sB5sGw5sGw":9641,"cs6sG4sE5sG5sG":9642,"cs2sC3sEt3s2p0":9643,"cs2sC3sFw3s1p0":9644,"cs2sC3sFw2s0p25":9645,"cs2sC3sFw3s2p0":9646,"cs2sG6sG5s2p0":9647,"cs2sG2sE3s0p25":9648,"4sF4sD4sA4s0p25":9649,"cs3sG6sC7sG7s0p25":9650,"cs3sG6sC6sG5s2p0":9651,"cs3sG5sGw5sE5s0p25":9652,"cs3sG5sGw5sF5s0p25":9653,"cs4sE6sCw6sA":9654,"cs3sEt5sG4sBt4s0p25":9655,"cs3sEt3sFw3sC4s0p5":9656,"cs3sFw4sFw5sC5s0p25":9657,"cs3sFw4sFw5sEt5s0p25":9658,"cs4sC5sFw5sEt":9659,"cs4sC5sFw5sEt5sFw4s1p0":9660,"cs3sCw4sGw4sF4s0p25":9661,"cs3sG4sB4sG5s1q3":9662,"cs4sD5sFw5sA5sD6s0p25":9663,"cs6sCw5sGw":9664,"cs2sC3sG2s0p25":9665,"cs2sB3sA4s0p25":9666,"cs2sA4sC5s3p0":9667,"cs2sA4sC5s1p25":9668,"cs2sA4sC4s1q12":9669,"cs2sF4sA4s1p25":9670,"cs2sF4sA4s1q12":9671,"cs2sF4sA4s1q6":9672,"cs3sC6sEt6sEt5s0p25":9673,"cs3sF5sE5sF5s0p25":9674,"cs4sG5sD6sB":9675,"cs4sG5sD6sF":9676,"cs4sC5sEt5sG":9677,"cs4sC6sF5sGw":9678,"cs4sC6sF6sA":9679,"cs4sA6sE6sC6sA5s0p25":9680,"cs4sA6sF6sC":9681,"cs4sD4sB3sF":9682,"cs4sD6sD5sC6sC5s0p25":9683,"cs4sEt5sG4sBt":9684,"cs4sEt5sG5sBt":9685,"cs4sEt5sG5sA5sEt6s0p25":9686,"cs4sFw4sA4sD":9687,"cs4sFw4sA3sC":9688,"cs4sFw4sA4sEt5sB4s1p0":9689,"cs4sB4sD5sG5sB5s1p0":9690,"cs12sG":9691,"cs3sE4sFw4sE5s0p25":9692,"cs3sE4sFw4sE5s1q3":9693,"cs3sE7sE6sGw6s0p25":9694,"cs3sC4sB4sC5s0p25":9695,"cs3sB3sB4sE4s1p0":9696,"cs2sCw3sCw4s1q3":9697,"cs4sG4sB4sD5sG5s0p5":9698,"cs4sG4sB4sD5sG5s2p0":9699,"cs3sBt5sD5sF5s0p25":9700,"cs3sBt5sD6sBt6s0p25":9701,"cs4sA3sA4sCw4sE4s1p0":9702,"cs3sCw4sBt4sCw5s1p0":9703,"cs4sB3sE4sG4sB4s1p0":9704,"cs4sB6sB5sCw6sE6s0p25":9705,"cs4sC5sE5sG5sC6s1p0":9706,"cs4sA4sC5sF5sA5s0p5":9707,"3s5q12":9708,"cs2sC3sA3s1p5":9709,"cs2sD3sF3s1p25":9710,"5sA4sA5s0p5":9711,"cs3sC3sD3sG3s1p0":9712,"cs3sC3sD3sA3s0p5":9713,"cs3sC3sD3sA3s1p0":9714,"cs4sE4sBt4sG":9715,"cs4sE4sBt4sFw4sCw4s0p25":9716,"cs4sG4sC5sC":9717,"cs4sC4sF4sC":9718,"cs4sA4sCw5sFw5sA5s0p25":9719,"cs4sA4sCw5sG5sA5s0p5":9720,"cs3sCw5sFw5sA5s0p5":9721,"cs4sF6sGw6sB6sF7s0p25":9722,"cs4sFw4sFw5sFw":9723,"cs4sFw4sFw5sC5sEt5s1p0":9724,"cs4sFw6sEt6sG6sE6s0p25":9725,"cs8sD5sF":9726,"cs8sD5sA4sFw":9727,"rs4p75":9728,"cs2sD5sB4s1p5":9729,"cs2sD5sB4s2p0":9730,"cs2sD5sB4s3p0":9731,"cs3sC6sD6sA6s0p25":9732,"cs3sA4sC5sE5s1q3":9733,"cs3sGw6sB6sD7s1p5":9734,"cs3sEt5sF5sEt5s0p25":9735,"cs3sEt3sGw3sC4s1p0":9736,"cs4sD4sG4sD":9737,"cs4sD3sFw3sD":9738,"cs4sB4sD5sF5sB5s2p0":9739,"cs8sB4sEt":9740,"cs4sE5sA5sC6sE6s0p5":9741,"cs4sE5sA5sC6sE6s1q3":9742,"cs2sE3sA2s1p0":9743,"cs2sC4sG3s1p25":9744,"cs2sC4sG3s2q3":9745,"cs2sB2sA2s1q3":9746,"cs2sG1sG2s0p5":9747,"cs2sG1sG2s1p0":9748,"cs2sD6sB5s0p75":9749,"cs2sBt3sEt4s2p0":9750,"cs3sA2sF3sD4s0p5":9751,"cs3sF3sF4sC4s1p0":9752,"cs3sF3sBt3sF4s1p0":9753,"cs3sF7sE7sEt7s0p25":9754,"cs4sE4sG4sB4sE5s2q3":9755,"cs4sG5sC5sG":9756,"cs4sG5sC6sB5sC6s0p25":9757,"cs4sG3sE3sE":9758,"cs4sG3sE3sC3sG2s1p0":9759,"cs4sD5sGw5sBt5sBt4s0p25":9760,"cs4sBt5sE6sG6sBt":9761,"cs4sCw4sCw3sE":9762,"cs4sC6sG5sE5sC5s0p75":9763,"cs4sC6sG5sE5sC5s2q3":9764,"cs4sF4sBt4sD5sF5s0p5":9765,"nsC3s3p75":9766,"nsC3s19q12":9767,"cs3sC4sC5sE4s0p25":9768,"cs3sB6sD6sD7s0p25":9769,"cs3sG2sC3sE3s1p0":9770,"cs3sA2sD3sB3s0p5":9771,"cs3sBt3sBt4sC4s0p25":9772,"cs4sA5sC6sF6sA6s1q3":9773,"cs3sCw7sCw6sE6s0p25":9774,"cs4sFw7sEt7sF7sD7s0p25":9775,"cs4sG4sBt4sCw5sG5s0p25":9776,"cs4sE4sE5sA4sCw5s1p0":9777,"cs4sC3sEt3sGw3sC4s0p5":9778,"7sC8sC7s0p25":9779,"cs4sBt3sEt4sG4sBt4s0p5":9780,"cs5sGw5sE":9781,"5s13q12":9782,"cs2sE2sC2s0p25":9783,"cs2sE2sC3s0p75":9784,"cs2sA3sB2s1p0":9785,"cs2sF4sB4s1p75":9786,"cs3sE3sGw3sE4s0p5":9787,"cs3sE2sG2sC3s1p0":9788,
[...]
